<unk>	0
<s>	0
</s>	0
▁the	-2.98193
s	-3.33184
▁and	-3.58056
ed	-3.65777
▁of	-3.70667
▁to	-3.77485
▁a	-3.88526
▁in	-4.25076
▁i	-4.36698
▁he	-4.46409
▁that	-4.55043
ly	-4.55381
▁it	-4.59336
▁was	-4.59784
ing	-4.63118
'	-4.81337
▁his	-4.84115
▁with	-4.97284
▁you	-4.99847
y	-5.00912
▁on	-5.01754
▁for	-5.02706
▁her	-5.07196
▁had	-5.07879
▁be	-5.08432
e	-5.10449
▁as	-5.12672
t	-5.19856
▁is	-5.20957
▁but	-5.22245
▁not	-5.22948
▁she	-5.24999
d	-5.28743
▁at	-5.34263
▁	-5.41764
▁him	-5.50349
▁my	-5.55084
▁have	-5.59469
▁by	-5.5974
▁all	-5.60355
▁they	-5.60984
▁this	-5.61916
▁which	-5.64422
▁so	-5.68232
▁said	-5.7019
▁from	-5.70415
▁me	-5.71942
n	-5.73415
▁one	-5.75576
▁were	-5.78228
▁we	-5.84049
▁there	-5.89339
▁no	-5.91631
▁when	-5.94976
▁or	-5.95275
▁who	-5.97456
er	-5.99332
▁an	-6.00396
▁are	-6.00909
▁their	-6.03612
▁would	-6.05035
▁if	-6.06
▁them	-6.06736
▁what	-6.09131
▁will	-6.17098
▁out	-6.18809
▁been	-6.20649
▁do	-6.20804
▁up	-6.21217
▁man	-6.30345
▁then	-6.32597
▁more	-6.37159
▁your	-6.37309
▁could	-6.3736
▁into	-6.4185
▁now	-6.44797
▁some	-6.45305
▁very	-6.46521
▁like	-6.46982
▁other	-6.50501
▁little	-6.51928
▁time	-6.52736
▁know	-6.57875
▁how	-6.59015
▁can	-6.59113
▁about	-6.5986
r	-6.60615
▁than	-6.64605
▁did	-6.64679
▁great	-6.64742
▁again	-6.65784
st	-6.65788
▁upon	-6.66497
▁has	-6.6664
es	-6.67801
▁any	-6.7001
▁well	-6.70335
m	-6.70744
▁over	-6.71518
▁see	-6.72649
▁two	-6.73035
▁our	-6.74766
▁good	-6.75121
ce	-6.75486
▁look	-6.76738
▁down	-6.77955
self	-6.79896
▁before	-6.79898
▁made	-6.82662
▁go	-6.82705
▁long	-6.83123
▁day	-6.84093
▁should	-6.84279
▁after	-6.84401
▁old	-6.8558
▁never	-6.87005
▁come	-6.8716
▁must	-6.87946
▁such	-6.88105
▁came	-6.89796
▁us	-6.89999
▁take	-6.90224
▁where	-6.905
▁much	-6.95272
▁these	-6.95556
▁mister	-6.96283
▁may	-7.00033
▁way	-7.0115
▁thought	-7.0321
in	-7.03344
▁first	-7.03897
▁back	-7.05232
ll	-7.0606
▁say	-7.06299
▁went	-7.07203
a	-7.0766
▁himself	-7.08184
▁men	-7.08859
▁own	-7.09511
▁here	-7.09819
▁think	-7.09931
▁might	-7.10934
▁am	-7.11401
ness	-7.11678
▁give	-7.12013
▁seem	-7.12927
ies	-7.1311
▁ask	-7.13132
▁just	-7.15638
▁through	-7.16826
▁place	-7.17636
▁even	-7.17665
▁make	-7.18813
▁away	-7.19099
▁too	-7.19459
en	-7.20005
▁life	-7.20309
▁its	-7.21136
▁hand	-7.21522
▁without	-7.21782
▁most	-7.22561
▁don	-7.23533
al	-7.24152
▁every	-7.24595
▁under	-7.25887
▁thos	-7.26178
▁eyes	-7.27441
▁shall	-7.27459
▁still	-7.2848
re	-7.29661
▁last	-7.29693
▁head	-7.29946
▁house	-7.30881
▁nothing	-7.31072
▁night	-7.32239
▁let	-7.33644
▁many	-7.34962
▁while	-7.35171
▁call	-7.35625
▁being	-7.373
▁get	-7.37355
ion	-7.37535
▁saw	-7.37604
▁off	-7.38066
▁people	-7.38072
▁found	-7.38076
▁face	-7.3809
on	-7.38711
▁tell	-7.4032
▁three	-7.41054
▁room	-7.41459
▁yet	-7.42116
▁same	-7.42732
▁love	-7.42869
▁father	-7.4385
p	-7.445
ard	-7.44768
▁another	-7.44885
▁part	-7.44949
▁un	-7.44973
▁though	-7.45007
▁want	-7.45653
▁right	-7.4628
est	-7.47295
▁put	-7.4779
▁young	-7.47812
▁took	-7.48096
▁ever	-7.48658
o	-7.49121
▁work	-7.51087
▁al	-7.51089
▁new	-7.51734
▁king	-7.51883
▁missus	-7.52203
▁sir	-7.52378
▁mind	-7.5273
ity	-7.53558
▁left	-7.54451
ve	-7.54485
ation	-7.54939
▁near	-7.5666
▁heart	-7.57594
▁mean	-7.57966
▁world	-7.58301
▁moment	-7.58567
▁things	-7.58806
▁o	-7.59183
▁thing	-7.59183
le	-7.59303
▁why	-7.60468
▁alway	-7.60707
g	-7.60742
▁light	-7.60747
▁mother	-7.60812
▁far	-7.6091
▁home	-7.61154
▁soon	-7.61614
▁answer	-7.61695
▁something	-7.63242
▁girl	-7.63618
cause	-7.644
able	-7.65437
▁told	-7.65443
▁open	-7.6562
i	-7.6568
▁door	-7.65736
▁yes	-7.65892
us	-7.66066
▁got	-7.67075
▁going	-7.67436
b	-7.67537
less	-7.68562
▁woman	-7.68661
ever	-7.69081
▁water	-7.6954
▁hear	-7.70219
▁find	-7.71113
c	-7.71783
▁knew	-7.71878
▁each	-7.72291
▁follow	-7.72656
ers	-7.72839
▁high	-7.72906
▁name	-7.73523
▁oh	-7.73531
▁side	-7.73586
l	-7.74047
▁certain	-7.75355
▁miss	-7.7681
▁real	-7.77158
▁quite	-7.77181
▁few	-7.78647
▁years	-7.78785
▁better	-7.79048
▁hard	-7.79253
▁present	-7.79377
▁half	-7.79394
▁done	-7.80216
▁return	-7.80293
▁end	-7.80331
▁pass	-7.81159
▁god	-7.81344
also	-7.81824
▁began	-7.81838
▁having	-7.82737
▁enough	-7.82911
▁seen	-7.84594
▁white	-7.85621
▁hour	-7.85773
▁whole	-7.85861
▁course	-7.85953
▁voice	-7.86236
▁kind	-7.86278
▁lady	-7.86845
▁close	-7.87559
▁set	-7.87614
se	-7.87656
▁both	-7.8816
u	-7.88252
▁gave	-7.88265
gether	-7.88275
▁poor	-7.88849
▁dear	-7.89157
or	-7.89168
▁turned	-7.89265
▁morning	-7.89916
▁between	-7.89956
▁among	-7.90284
▁sure	-7.90852
▁order	-7.91125
▁wish	-7.9118
▁matter	-7.91324
▁nor	-7.9139
▁believe	-7.92231
▁toward	-7.92397
▁small	-7.92443
▁speak	-7.92529
▁friend	-7.92841
▁whom	-7.93053
an	-7.932
▁de	-7.93232
▁felt	-7.93626
▁cri	-7.93741
▁hands	-7.93973
▁full	-7.94302
▁hundred	-7.9571
▁stood	-7.9573
ic	-7.96409
▁round	-7.96808
▁keep	-7.97142
▁large	-7.985
▁leave	-7.98984
▁boy	-7.99223
▁repli	-7.99577
▁hope	-7.99707
▁perhaps	-8.00065
▁words	-8.00605
▁sudden	-8.01211
▁wait	-8.02191
▁four	-8.02235
▁sat	-8.02418
▁anything	-8.0253
▁till	-8.02538
▁until	-8.03197
▁form	-8.03444
ry	-8.04116
▁help	-8.049
▁next	-8.04945
▁does	-8.05017
th	-8.0521
▁black	-8.05548
▁rest	-8.05746
▁power	-8.05767
▁brought	-8.05983
▁since	-8.06189
k	-8.06397
▁lay	-8.06806
▁word	-8.06988
▁country	-8.07135
▁looking	-8.07361
▁almo	-8.07576
f	-8.07646
▁general	-8.08289
▁sea	-8.08487
▁indeed	-8.08602
▁days	-8.0901
▁tree	-8.09669
▁rather	-8.09997
▁appear	-8.10458
▁feet	-8.10794
▁air	-8.10863
▁five	-8.11353
▁fall	-8.11621
▁question	-8.11664
▁walk	-8.12041
▁reach	-8.12717
▁gone	-8.12747
▁wife	-8.13599
▁live	-8.1368
▁fire	-8.13941
▁thu	-8.14481
▁best	-8.14568
▁fact	-8.14623
▁death	-8.14719
w	-8.14743
ther	-8.15205
it	-8.15533
▁person	-8.15648
is	-8.15974
▁case	-8.16664
▁canno	-8.16768
▁along	-8.17217
▁themselves	-8.1742
▁child	-8.17901
▁reason	-8.18426
▁master	-8.18477
▁lord	-8.19197
▁letter	-8.19573
▁play	-8.19758
ment	-8.20466
▁true	-8.20531
▁less	-8.20834
▁thousand	-8.21008
▁money	-8.21458
▁behind	-8.21841
▁nature	-8.21916
▁children	-8.2204
▁doctor	-8.22051
▁t	-8.22292
▁sound	-8.2244
▁twenty	-8.22487
▁land	-8.22569
lone	-8.22637
▁remain	-8.22842
▁thou	-8.23075
▁show	-8.23477
▁clear	-8.24185
▁enter	-8.24721
man	-8.2534
li	-8.25454
▁dead	-8.25935
▁state	-8.25943
▁strong	-8.26485
el	-8.27046
▁ground	-8.27088
▁short	-8.27229
▁window	-8.27234
▁need	-8.27522
▁happen	-8.27741
▁spoke	-8.28047
▁remember	-8.28116
▁talk	-8.28138
ten	-8.28326
▁re	-8.28344
▁red	-8.28355
▁prince	-8.2839
▁fell	-8.2952
▁care	-8.29796
▁dur	-8.29977
▁deep	-8.30441
refore	-8.30493
▁body	-8.30755
▁sun	-8.30965
ous	-8.30966
ful	-8.31046
▁possibl	-8.31142
▁second	-8.31354
▁war	-8.3167
▁turn	-8.31923
▁son	-8.32655
▁add	-8.32749
▁often	-8.32776
▁fear	-8.32971
▁bring	-8.33188
▁beside	-8.33224
▁horse	-8.33395
▁point	-8.33659
▁ten	-8.33975
▁table	-8.33997
h	-8.34154
▁earth	-8.34254
▁bed	-8.34479
▁whe	-8.34989
▁sent	-8.35011
ar	-8.35983
▁try	-8.36032
▁smile	-8.36102
ton	-8.36312
▁use	-8.36696
▁dark	-8.367
▁coming	-8.36782
▁everything	-8.37072
▁above	-8.37635
ready	-8.37716
▁feel	-8.37764
▁beautiful	-8.37975
▁least	-8.38164
▁evening	-8.38223
il	-8.38291
▁soul	-8.38529
▁read	-8.38578
▁around	-8.39307
ck	-8.39856
▁quick	-8.39887
▁feeling	-8.39913
▁six	-8.4008
na	-8.40417
▁street	-8.4058
ng	-8.4097
▁rose	-8.40979
▁los	-8.41008
ie	-8.41846
▁d	-8.41936
▁captain	-8.42026
ri	-8.42185
▁sort	-8.42361
▁women	-8.4246
ty	-8.42621
▁line	-8.4289
ish	-8.43107
▁brother	-8.4333
▁held	-8.43468
▁else	-8.4399
▁strange	-8.44404
▁manner	-8.44489
la	-8.44569
v	-8.44648
came	-8.44658
ra	-8.44786
▁dress	-8.44953
▁fine	-8.44992
▁year	-8.45183
▁either	-8.45268
▁fair	-8.45376
▁doubt	-8.45441
▁town	-8.45478
ive	-8.45673
▁di	-8.45802
kept	-8.45835
▁sight	-8.45844
▁arm	-8.46278
ch	-8.46546
▁laugh	-8.46579
▁sleep	-8.46802
ur	-8.46852
▁hair	-8.47083
▁making	-8.4778
▁ran	-8.47845
▁friends	-8.48498
▁sometime	-8.48537
ter	-8.49865
▁daughter	-8.50443
▁law	-8.50499
▁sense	-8.50615
▁big	-8.50661
▁city	-8.50867
▁used	-8.51377
▁road	-8.51571
▁bad	-8.51867
▁become	-8.52111
▁watch	-8.52265
▁spirit	-8.52389
▁tri	-8.526
▁cold	-8.52651
▁listen	-8.52754
ne	-8.52835
▁ready	-8.53149
▁idea	-8.53637
▁won	-8.53721
▁truth	-8.53766
▁past	-8.53973
▁thy	-8.54202
▁business	-8.54247
▁ear	-8.54421
▁subject	-8.54508
▁run	-8.54534
▁river	-8.54782
▁consider	-8.55226
▁carri	-8.55284
▁perfect	-8.55297
▁start	-8.55388
▁family	-8.55404
▁interest	-8.55788
▁glad	-8.55811
▁la	-8.559
▁several	-8.55901
▁understand	-8.56016
▁didn	-8.56107
▁kill	-8.56323
▁wind	-8.56374
▁different	-8.56629
▁hold	-8.56785
led	-8.56787
▁trouble	-8.56826
▁change	-8.56834
▁free	-8.57387
▁sister	-8.57688
cross	-8.57882
▁natural	-8.58189
▁blood	-8.5842
▁eye	-8.5897
▁quiet	-8.58976
▁foot	-8.59122
▁human	-8.59171
▁happ	-8.59174
▁wonder	-8.59342
ling	-8.59376
▁arms	-8.59484
▁late	-8.59494
▁cut	-8.5963
▁able	-8.60034
▁story	-8.60109
▁says	-8.60304
▁count	-8.60316
ance	-8.60332
▁difficult	-8.6053
ine	-8.60692
▁number	-8.60923
ia	-8.60971
▁cover	-8.61326
▁piece	-8.61586
▁suppose	-8.61724
ent	-8.61856
▁continu	-8.61879
▁cause	-8.62121
▁low	-8.62743
ro	-8.62748
▁ga	-8.62877
▁green	-8.62884
▁husband	-8.62928
▁mere	-8.62969
x	-8.6308
▁stone	-8.63089
▁act	-8.63107
▁con	-8.63248
▁slow	-8.63431
▁taking	-8.63805
▁regard	-8.63862
▁ma	-8.64273
▁seven	-8.64398
▁stay	-8.6474
▁p	-8.65433
▁fellow	-8.65769
▁church	-8.65891
▁object	-8.6592
▁eat	-8.66188
▁pretty	-8.66384
▁co	-8.66501
as	-8.66965
▁john	-8.67288
▁met	-8.67328
▁book	-8.67409
co	-8.67456
▁week	-8.6768
▁save	-8.67904
ant	-8.67992
▁allow	-8.68028
▁paper	-8.68043
▁common	-8.68261
▁wood	-8.6836
▁times	-8.68892
▁dream	-8.69212
▁month	-8.69456
ul	-8.69563
ma	-8.69654
▁car	-8.69807
▁soft	-8.70042
▁school	-8.70121
▁surprise	-8.70225
▁bear	-8.70377
age	-8.7047
▁gold	-8.71094
ac	-8.71115
▁star	-8.71161
▁sweet	-8.71275
▁saying	-8.71372
▁blue	-8.71536
▁wild	-8.71802
▁usual	-8.71857
▁particular	-8.72069
▁account	-8.72122
▁ought	-8.72602
den	-8.72999
▁throw	-8.73266
▁age	-8.73361
▁mov	-8.74331
▁worth	-8.74337
▁art	-8.74393
▁purpose	-8.74437
▁heaven	-8.7445
▁flower	-8.74477
▁touch	-8.74514
▁character	-8.74598
▁seat	-8.7484
▁cross	-8.74901
though	-8.75195
men	-8.7539
▁bright	-8.75669
▁chance	-8.75977
lo	-8.76242
▁direct	-8.76465
ff	-8.76485
▁si	-8.76664
▁garden	-8.76871
▁neither	-8.77029
▁uncle	-8.77048
ad	-8.77296
▁princess	-8.77424
▁stopp	-8.77518
▁immediate	-8.77702
ily	-8.77708
▁plain	-8.77826
stead	-8.77847
▁effect	-8.7785
▁visit	-8.78149
▁g	-8.78481
▁pleasure	-8.78493
▁deal	-8.78497
▁leg	-8.78741
▁die	-8.79023
▁further	-8.79131
▁ship	-8.79291
▁none	-8.79315
▁instant	-8.79349
▁ye	-8.79391
▁draw	-8.79593
▁forward	-8.797
to	-8.79717
▁queen	-8.80209
ci	-8.80395
▁except	-8.80435
ath	-8.80445
land	-8.80617
id	-8.80731
▁meet	-8.80815
▁chief	-8.80845
▁public	-8.81078
▁eighteen	-8.81078
▁e	-8.81554
low	-8.8159
▁ha	-8.81746
▁later	-8.81922
▁grow	-8.82269
▁animal	-8.82366
▁court	-8.82385
▁mouth	-8.82708
▁ho	-8.83152
▁mine	-8.833
▁stand	-8.83669
am	-8.83858
▁discover	-8.8402
ir	-8.84075
▁bow	-8.8413
yond	-8.84165
▁offer	-8.84256
▁living	-8.84292
▁force	-8.84305
▁exclaim	-8.84391
▁secret	-8.84498
▁front	-8.84508
▁condition	-8.84572
▁chair	-8.84639
▁cry	-8.84664
▁c	-8.84918
▁hall	-8.85001
ate	-8.85253
ge	-8.85258
▁sign	-8.85483
▁received	-8.85611
▁gentleman	-8.85675
▁wall	-8.85686
▁cap	-8.85785
▁hat	-8.85853
▁entire	-8.85906
um	-8.85999
▁laid	-8.86108
▁em	-8.86539
▁pay	-8.86806
▁send	-8.87201
▁tone	-8.87314
ical	-8.87958
▁according	-8.88016
▁party	-8.88126
▁silence	-8.88254
▁shoulder	-8.88273
fraid	-8.88572
▁rich	-8.88646
▁english	-8.88729
▁ah	-8.88905
▁figure	-8.89008
▁bar	-8.89153
▁mary	-8.89182
▁england	-8.89322
▁necessar	-8.89808
▁command	-8.90046
▁se	-8.90728
▁equal	-8.90899
▁doing	-8.91049
▁service	-8.91108
▁view	-8.9121
▁led	-8.91387
▁aunt	-8.91419
▁lip	-8.9147
▁minutes	-8.9149
▁please	-8.91769
▁bit	-8.91934
ian	-8.92183
▁complete	-8.92209
▁drew	-8.92262
▁warm	-8.92367
▁eight	-8.92689
▁miles	-8.92786
▁position	-8.9284
▁respect	-8.92881
▁length	-8.92991
▁ill	-8.93381
▁attention	-8.93847
▁heavy	-8.93882
▁standing	-8.9413
▁remark	-8.94209
▁thinking	-8.94401
▁spring	-8.94668
▁dog	-8.9479
ary	-8.95012
▁learn	-8.95273
▁caugh	-8.95376
▁happi	-8.95378
ver	-8.95655
▁bell	-8.95932
▁grew	-8.95989
▁opinion	-8.96052
▁ago	-8.9607
▁finger	-8.96193
▁creature	-8.96323
▁probabl	-8.96459
▁forth	-8.96777
▁corner	-8.96793
▁occasion	-8.96946
▁island	-8.9702
▁third	-8.97345
▁observ	-8.97531
▁top	-8.97537
▁wide	-8.97633
▁dinner	-8.97827
▁sharp	-8.97849
▁beauty	-8.97966
▁approach	-8.98377
te	-8.98463
▁silent	-8.98516
▁fift	-8.98839
▁sitting	-8.98938
▁thirty	-8.99002
▁break	-8.99119
▁explain	-8.99141
ke	-8.99173
▁glance	-8.99281
▁sad	-8.99477
pp	-8.99523
▁action	-8.99552
▁self	-8.9969
▁seeing	-8.99699
▁ti	-9.00172
▁thank	-9.00229
▁sing	-9.00302
▁ca	-9.00633
▁scarce	-9.00659
sh	-9.00712
▁struck	-9.0077
▁safe	-9.0081
▁straight	-9.00899
▁experience	-9.00914
▁distance	-9.01041
▁knowledge	-9.01112
▁wrong	-9.01112
▁final	-9.01253
▁dis	-9.01419
▁afterward	-9.01434
▁gett	-9.01453
▁attempt	-9.01468
▁joy	-9.01508
▁whatever	-9.01537
▁government	-9.01617
▁boat	-9.01631
▁ex	-9.01754
▁grave	-9.01836
ha	-9.01925
▁crowd	-9.01996
▁train	-9.02075
▁direction	-9.02122
▁loved	-9.0217
▁per	-9.02332
▁slight	-9.02413
▁desire	-9.02433
▁evident	-9.02472
▁sit	-9.02484
▁floor	-9.02556
▁rock	-9.02609
▁utter	-9.02678
▁mo	-9.02688
▁company	-9.02761
▁exact	-9.02922
▁shadow	-9.03197
▁drink	-9.03705
▁liv	-9.03805
▁careful	-9.0383
▁glass	-9.03909
▁spot	-9.04185
▁danger	-9.04195
▁snow	-9.04291
▁saint	-9.04438
▁lo	-9.04596
▁palace	-9.04597
▁result	-9.04806
▁accept	-9.0488
▁forest	-9.05378
▁appearance	-9.05445
▁tears	-9.05558
▁le	-9.05961
▁forgot	-9.06371
▁london	-9.06442
▁sp	-9.0659
▁brown	-9.0662
side	-9.06828
▁battle	-9.06894
▁affair	-9.07044
▁fish	-9.07147
▁anne	-9.07168
▁whisper	-9.0727
▁step	-9.07435
ist	-9.07499
the	-9.07539
gg	-9.07638
▁bound	-9.07763
▁fail	-9.078
▁margaret	-9.07877
▁express	-9.08022
▁food	-9.08029
▁filled	-9.08103
▁strength	-9.08248
giving	-9.0836
▁pleasant	-9.08411
▁expression	-9.08627
▁fast	-9.08679
▁pocket	-9.08717
▁circumstance	-9.08794
▁cat	-9.08849
▁fresh	-9.09215
at	-9.09306
▁pick	-9.09343
▁cloud	-9.09417
▁promise	-9.09463
▁officer	-9.09466
▁broken	-9.09523
me	-9.09672
mp	-9.09803
▁hid	-9.09854
▁pain	-9.0997
que	-9.10115
▁easy	-9.10264
▁runn	-9.10403
▁fight	-9.10462
vi	-9.11214
▁plan	-9.11276
▁pale	-9.11416
▁wise	-9.11836
▁arriv	-9.11927
▁office	-9.11941
▁french	-9.12207
▁south	-9.12309
▁hot	-9.12347
ley	-9.12527
▁tom	-9.13046
tic	-9.13113
▁tea	-9.13182
▁impossibl	-9.13269
▁conversation	-9.13685
▁drive	-9.13758
▁scene	-9.13834
ure	-9.13911
▁stop	-9.13945
▁society	-9.14198
▁outside	-9.1422
ot	-9.14271
▁indian	-9.14368
▁writ	-9.14399
▁effort	-9.144
▁da	-9.14407
▁fortune	-9.14481
▁proper	-9.14485
▁peter	-9.14558
▁nine	-9.14723
▁single	-9.1484
ious	-9.14903
▁simple	-9.15073
▁boys	-9.15075
▁cast	-9.1511
▁demand	-9.15379
▁talking	-9.15409
pe	-9.15426
▁write	-9.15517
ta	-9.15571
▁lad	-9.15591
▁begin	-9.15831
▁box	-9.15851
les	-9.15897
▁post	-9.15929
▁sky	-9.15951
▁peace	-9.15952
▁join	-9.16046
▁thick	-9.162
▁wonderful	-9.16245
▁ring	-9.1636
▁escape	-9.16406
▁iron	-9.16441
▁blow	-9.16455
▁camp	-9.16457
▁ro	-9.16496
▁mention	-9.16515
way	-9.16562
▁possess	-9.16637
▁grace	-9.16877
▁marri	-9.16915
▁wound	-9.16949
▁chapter	-9.16955
▁army	-9.16971
▁finish	-9.17122
▁afternoon	-9.17367
▁evil	-9.17455
▁turning	-9.17551
▁trust	-9.17569
▁mad	-9.1759
▁wave	-9.17817
▁silver	-9.17954
▁breath	-9.17971
▁kiss	-9.18007
by	-9.18196
▁horses	-9.1845
ni	-9.18478
▁youth	-9.18557
▁beginning	-9.18632
▁habit	-9.18884
▁pull	-9.18887
op	-9.19001
ut	-9.19042
▁expect	-9.19051
▁hill	-9.19084
▁especial	-9.19139
▁w	-9.19151
▁clothes	-9.1922
▁morrow	-9.19309
bo	-9.19394
▁presence	-9.19394
▁neck	-9.19667
▁vi	-9.19731
▁li	-9.1979
mi	-9.19862
▁judge	-9.20022
▁shore	-9.20168
▁minute	-9.20172
▁eager	-9.20424
most	-9.20517
▁sw	-9.20528
▁shot	-9.20689
▁grand	-9.2087
▁pen	-9.20983
▁degree	-9.21029
▁color	-9.21138
▁former	-9.21172
▁bird	-9.21238
hrew	-9.21325
▁carry	-9.21443
▁seek	-9.21457
▁simpl	-9.21463
va	-9.21522
▁serious	-9.21644
go	-9.22182
▁north	-9.22232
▁moon	-9.22242
▁fit	-9.22445
▁thin	-9.22518
ol	-9.22521
▁stream	-9.22692
▁board	-9.22815
▁notice	-9.22836
ct	-9.22849
ig	-9.2285
▁easily	-9.23043
▁mountain	-9.23053
▁stranger	-9.23164
▁duty	-9.23241
▁sufficient	-9.23311
▁twelve	-9.23316
▁path	-9.23391
▁st	-9.23405
▁faint	-9.23565
▁burn	-9.2366
▁leaving	-9.23667
▁couldn	-9.23693
▁m	-9.23701
▁suit	-9.23725
▁journey	-9.23845
▁field	-9.23945
▁game	-9.24137
▁terrible	-9.24221
▁lie	-9.24265
ca	-9.24299
▁tall	-9.24427
▁knight	-9.24497
▁rais	-9.24603
▁noble	-9.24652
▁agree	-9.24676
▁stick	-9.24745
▁class	-9.24872
▁marry	-9.24948
▁comfort	-9.25042
▁sei	-9.2524
▁shut	-9.25453
▁address	-9.25476
light	-9.255
▁attack	-9.25556
▁guess	-9.25649
▁sword	-9.25674
▁calm	-9.25695
▁ball	-9.25953
▁charge	-9.25961
▁showed	-9.26013
▁winter	-9.26024
▁village	-9.26031
ated	-9.26093
▁anxious	-9.26193
▁rapid	-9.26379
ism	-9.26394
wise	-9.26507
▁nice	-9.26846
▁inquir	-9.26865
ag	-9.26909
▁march	-9.26912
▁forty	-9.2714
▁honour	-9.27295
stood	-9.27308
▁move	-9.27333
▁honor	-9.27388
▁rise	-9.27502
▁po	-9.27555
▁slave	-9.27564
▁broke	-9.27565
▁shape	-9.27604
▁guard	-9.27703
▁mu	-9.27733
▁gain	-9.27825
▁ladies	-9.27851
▁term	-9.27963
▁expected	-9.28075
eth	-9.28271
▁rush	-9.28289
▁pray	-9.285
▁principle	-9.28513
▁summer	-9.28712
▁lift	-9.28938
▁belong	-9.28984
▁golden	-9.29015
▁decided	-9.29107
▁lead	-9.29312
▁books	-9.29325
▁bene	-9.29342
selves	-9.29414
▁shook	-9.29634
▁noise	-9.29701
▁influence	-9.29734
▁music	-9.29867
▁marriage	-9.3003
▁middle	-9.30108
ud	-9.3014
▁movement	-9.30146
▁broad	-9.3016
▁learned	-9.30161
▁enemy	-9.30296
▁history	-9.30301
▁latter	-9.30392
▁born	-9.30877
▁lower	-9.30897
▁conduct	-9.31061
▁states	-9.31133
▁yard	-9.31176
im	-9.31619
▁exist	-9.31784
▁firm	-9.3196
▁speech	-9.32024
un	-9.32088
▁gate	-9.32117
▁bank	-9.32192
▁succeed	-9.32218
▁reply	-9.3224
▁grass	-9.32303
▁forget	-9.32485
▁ri	-9.32588
be	-9.32594
▁recogni	-9.326
▁sorr	-9.32751
▁dance	-9.32763
head	-9.3286
▁bill	-9.32867
▁wear	-9.32974
▁american	-9.33117
▁treat	-9.3314
▁enjoy	-9.33166
▁contain	-9.33193
▁bu	-9.33298
▁reali	-9.3332
▁shout	-9.33403
▁lot	-9.33783
▁measure	-9.33806
▁oblig	-9.33928
▁rain	-9.33964
▁sail	-9.34031
▁meant	-9.343
▁personal	-9.34352
▁steps	-9.34388
▁poet	-9.34593
▁taste	-9.34772
ial	-9.34827
▁event	-9.35121
clock	-9.35138
▁comes	-9.35242
▁makes	-9.35262
▁brave	-9.35509
▁hung	-9.35582
▁castle	-9.35864
▁lock	-9.35919
▁pro	-9.35956
▁madame	-9.35989
▁repeated	-9.36047
▁future	-9.36076
▁dick	-9.3614
▁health	-9.3618
▁pu	-9.36355
▁lu	-9.36375
▁building	-9.36394
po	-9.36586
▁edge	-9.36622
▁spite	-9.36707
▁pre	-9.36901
▁intend	-9.3701
▁prisoner	-9.37141
▁coat	-9.37273
▁suggest	-9.37538
do	-9.37612
▁picture	-9.37615
▁proceed	-9.37655
▁catch	-9.37762
▁roll	-9.37862
▁loud	-9.37866
▁bread	-9.37879
▁constant	-9.37909
▁sigh	-9.38082
▁yellow	-9.38116
▁important	-9.38118
kin	-9.3817
▁race	-9.38257
▁darkness	-9.38338
▁carriage	-9.38462
▁west	-9.38487
▁pleased	-9.38618
▁spread	-9.3863
▁curious	-9.38639
ho	-9.38861
▁jane	-9.39063
▁sick	-9.39114
▁chang	-9.39114
▁passion	-9.39126
▁citi	-9.39174
▁blind	-9.39253
▁dropp	-9.39361
▁wouldn	-9.39373
ab	-9.39409
▁content	-9.39478
▁press	-9.3963
▁pai	-9.39645
▁space	-9.39672
ory	-9.3971
▁dry	-9.40185
▁absolute	-9.40405
▁ancient	-9.40405
▁pound	-9.40518
▁increase	-9.40616
▁knee	-9.40618
▁existence	-9.40721
▁beast	-9.40844
▁clean	-9.41039
▁colour	-9.41041
▁wing	-9.41308
▁passing	-9.41392
▁jo	-9.41463
▁declar	-9.41551
▁determined	-9.41571
▁faith	-9.41654
▁dare	-9.41845
▁storm	-9.4189
▁priest	-9.41936
▁sa	-9.41978
▁skin	-9.41997
▁b	-9.42082
▁narrow	-9.42104
▁support	-9.42104
▁private	-9.42211
▁cousin	-9.42426
▁cook	-9.4254
▁ra	-9.42557
▁search	-9.42559
out	-9.4263
▁en	-9.42661
▁prevent	-9.42749
▁various	-9.42759
▁serve	-9.42841
▁extreme	-9.42857
▁hole	-9.42953
om	-9.4302
▁engag	-9.43066
▁bottom	-9.43181
▁nobody	-9.43181
▁drawing	-9.43392
▁sand	-9.43403
nce	-9.43542
▁individual	-9.43615
▁fixed	-9.43693
cy	-9.438
▁opportunit	-9.43833
▁tru	-9.43904
▁wine	-9.44039
▁advantage	-9.4427
▁actual	-9.4427
▁rid	-9.44278
▁beat	-9.4455
▁france	-9.44641
▁tired	-9.44695
▁walls	-9.44897
▁wrote	-9.44929
▁royal	-9.4493
▁dollar	-9.45088
▁plant	-9.45143
if	-9.45203
▁luck	-9.45427
▁tin	-9.45461
▁lake	-9.45514
▁obtain	-9.45592
▁ni	-9.45616
▁stretch	-9.45703
▁main	-9.45841
▁mar	-9.45961
▁bra	-9.46036
▁cha	-9.46139
what	-9.4615
no	-9.4616
▁concern	-9.46239
▁bitter	-9.46326
▁sake	-9.46391
▁cheek	-9.46485
▁breakfast	-9.46708
▁labor	-9.46708
▁desert	-9.4682
▁stair	-9.46843
▁wors	-9.46849
▁instance	-9.46937
▁imp	-9.4702
▁study	-9.47028
▁astonish	-9.47045
▁colonel	-9.47157
▁special	-9.47159
▁value	-9.47282
▁proud	-9.47393
▁par	-9.47559
▁nation	-9.47562
▁handsome	-9.47659
▁passage	-9.47811
▁period	-9.47836
▁frighten	-9.47853
▁angr	-9.479
▁lives	-9.47901
▁frequent	-9.47949
▁hurt	-9.48066
▁push	-9.48191
tion	-9.48437
▁chamber	-9.48638
▁pure	-9.48681
▁christ	-9.48753
▁ne	-9.48805
ade	-9.48818
▁destroy	-9.48862
▁port	-9.48868
▁lose	-9.48928
▁isn	-9.4895
▁disappear	-9.48958
▁grant	-9.49002
▁meeting	-9.49065
▁settl	-9.49145
▁courage	-9.49437
▁servant	-9.49456
▁east	-9.49549
▁george	-9.49552
▁jack	-9.49566
▁birds	-9.49569
▁bag	-9.4959
▁gentle	-9.49653
▁apparent	-9.49668
▁ears	-9.49839
▁mount	-9.49906
▁pan	-9.5027
▁tender	-9.50273
▁cra	-9.50328
▁store	-9.50387
▁burst	-9.504
▁valley	-9.50603
▁shop	-9.50604
▁holding	-9.50751
▁fifteen	-9.50798
▁jump	-9.50955
▁christian	-9.50981
▁prove	-9.51011
▁henry	-9.5108
▁fool	-9.51164
pa	-9.51424
▁writing	-9.51503
▁language	-9.51534
▁success	-9.51689
▁soldiers	-9.51718
▁inside	-9.51912
▁ruin	-9.5195
▁mark	-9.5205
ally	-9.52105
▁situation	-9.52137
▁gun	-9.5214
▁du	-9.52209
▁gentlemen	-9.52259
▁fancy	-9.52412
▁season	-9.52489
▁vain	-9.52636
▁receive	-9.52666
▁inform	-9.52666
▁cup	-9.52753
ah	-9.52778
▁delight	-9.52894
▁cool	-9.53113
▁attend	-9.53169
▁vessel	-9.53315
▁william	-9.53316
▁su	-9.53361
▁goes	-9.53368
▁group	-9.53437
▁na	-9.53876
▁gi	-9.53885
▁everybody	-9.54037
▁bo	-9.54161
▁moral	-9.5417
ster	-9.54224
▁eli	-9.54238
▁flash	-9.54288
▁report	-9.54484
▁wash	-9.54532
▁murder	-9.54577
▁quarter	-9.54621
▁mi	-9.54644
▁property	-9.54678
let	-9.547
▁render	-9.54707
▁cla	-9.54783
ier	-9.54813
▁knock	-9.54885
▁heat	-9.54899
▁earnest	-9.54912
ble	-9.5498
▁honest	-9.55129
▁square	-9.5562
▁built	-9.55864
▁promis	-9.55904
▁companion	-9.55979
▁dust	-9.56077
ak	-9.56104
▁recover	-9.56113
▁york	-9.56113
▁tail	-9.56165
▁wor	-9.56177
▁climb	-9.56233
▁fond	-9.56246
▁knowing	-9.5631
▁fate	-9.56558
▁news	-9.5659
▁fruit	-9.56604
▁weak	-9.56612
▁grown	-9.56815
▁station	-9.56816
▁murmur	-9.56852
▁ordinar	-9.56852
vo	-9.56933
▁rough	-9.57231
▁laws	-9.5757
▁ta	-9.57585
▁surface	-9.576
▁possession	-9.57819
▁tongue	-9.57855
▁duke	-9.57989
▁walking	-9.58014
▁gent	-9.58073
live	-9.58136
ov	-9.58192
▁due	-9.58208
▁weather	-9.5823
ement	-9.5832
▁system	-9.58353
ti	-9.58424
io	-9.58458
▁wealth	-9.58606
▁bare	-9.58631
▁temper	-9.58732
▁imagine	-9.58751
▁claim	-9.59121
▁fashion	-9.59271
▁pe	-9.59315
▁shoe	-9.59395
▁sorrow	-9.59477
▁opposite	-9.59497
▁nose	-9.59519
▁gray	-9.59673
▁employ	-9.59721
▁social	-9.59747
▁spen	-9.59791
▁key	-9.59848
▁resolv	-9.59877
▁crown	-9.60118
▁laughing	-9.60178
ship	-9.60183
▁swift	-9.60261
▁earl	-9.60301
▁reading	-9.60465
▁pour	-9.60696
▁ideas	-9.60728
▁empty	-9.60777
sleep	-9.60851
▁difference	-9.60906
▁smiling	-9.60906
▁avoid	-9.60906
▁row	-9.60978
▁serv	-9.61018
▁alto	-9.61025
▁cur	-9.61275
▁material	-9.61294
▁breast	-9.61328
con	-9.61335
▁prepared	-9.61441
▁mill	-9.61467
▁distinct	-9.61491
▁suffering	-9.61541
▁grey	-9.6162
▁brain	-9.61666
▁sin	-9.61726
ka	-9.6176
▁meaning	-9.61847
pt	-9.62013
▁papa	-9.62118
und	-9.62139
▁centur	-9.62222
▁note	-9.62231
▁leap	-9.62344
▁lover	-9.6252
bi	-9.6268
▁memory	-9.62743
▁kingdom	-9.62755
▁cost	-9.62907
▁maid	-9.63019
▁virtue	-9.63128
▁guest	-9.63163
▁motion	-9.63228
▁rode	-9.6336
ell	-9.63449
▁ja	-9.6349
▁fault	-9.63525
▁spra	-9.63597
▁paris	-9.63655
▁height	-9.63674
▁vast	-9.63793
▁bent	-9.63874
▁mountains	-9.63906
▁satisfied	-9.63971
▁hath	-9.64059
wood	-9.64147
▁conceal	-9.64191
▁despair	-9.64459
▁notic	-9.64499
▁united	-9.64507
▁fur	-9.64555
▁wheel	-9.64694
▁opening	-9.64715
▁pity	-9.64728
▁soldier	-9.64791
▁rising	-9.64849
▁pride	-9.65064
ens	-9.65066
▁fe	-9.65157
▁justice	-9.65228
▁machine	-9.65266
▁regular	-9.65266
▁hurried	-9.65401
▁alarm	-9.65673
▁double	-9.65673
▁dreadful	-9.6569
▁supper	-9.65743
ham	-9.65826
lin	-9.65849
▁stock	-9.65849
▁example	-9.65943
▁roof	-9.65951
▁advanc	-9.66296
▁contrar	-9.66353
▁finding	-9.66641
▁peculiar	-9.66704
pi	-9.66746
▁pri	-9.66777
▁pack	-9.66907
▁lean	-9.66946
▁emotion	-9.67037
▁supposed	-9.67079
▁buy	-9.67104
▁produc	-9.67108
▁major	-9.67221
▁kitchen	-9.67312
▁terror	-9.6745
▁servants	-9.67584
▁fat	-9.67642
▁gloom	-9.67865
▁method	-9.67865
▁awful	-9.67867
▁forgive	-9.67868
▁win	-9.67877
stone	-9.67912
▁reflect	-9.6808
▁chose	-9.68144
▁welcome	-9.6817
▁angel	-9.68449
▁sum	-9.68477
▁descend	-9.68543
ow	-9.68615
▁bold	-9.687
▁knows	-9.68714
▁farm	-9.68892
▁tale	-9.69041
▁shin	-9.69083
▁salt	-9.69132
▁mistress	-9.69264
▁qualit	-9.69403
▁evidence	-9.69542
▁boil	-9.69579
▁baby	-9.6961
uc	-9.69631
▁suffer	-9.69651
bu	-9.69709
▁deliver	-9.69966
▁doesn	-9.69982
▁share	-9.69985
▁monsieur	-9.70108
▁ama	-9.70221
▁watching	-9.70432
▁roman	-9.70439
▁gathered	-9.70522
▁crime	-9.70606
▁rate	-9.70714
▁smoke	-9.70765
▁fly	-9.70816
▁loose	-9.70827
▁require	-9.70894
aught	-9.70924
▁twice	-9.71105
▁mass	-9.71172
▁frank	-9.71279
▁caus	-9.71348
ron	-9.71387
▁patient	-9.71391
▁hu	-9.71504
▁travel	-9.71536
▁pair	-9.71591
▁flat	-9.71593
▁putt	-9.71627
▁arthur	-9.72402
▁stepp	-9.72411
▁heads	-9.72412
▁devil	-9.72524
▁rule	-9.72696
ors	-9.72698
▁affection	-9.72711
▁trade	-9.72754
▁ver	-9.72829
▁milk	-9.72872
ba	-9.7291
▁lamp	-9.7302
▁perceiv	-9.73025
▁gift	-9.7313
▁excellent	-9.73276
▁cruel	-9.73278
▁impression	-9.73304
▁proved	-9.73324
he	-9.73394
os	-9.73429
▁tower	-9.73478
▁rare	-9.73526
▁authority	-9.73561
▁consequence	-9.73569
▁hi	-9.73674
▁flew	-9.73716
▁charles	-9.73721
▁dai	-9.73764
▁sc	-9.73779
▁limit	-9.73863
▁confidence	-9.73864
▁familiar	-9.73874
▁intention	-9.74042
▁ice	-9.74272
▁perform	-9.74287
▁solemn	-9.74305
▁distant	-9.74305
time	-9.74306
▁extend	-9.74382
▁image	-9.74458
▁president	-9.74604
▁k	-9.74609
▁weight	-9.74637
▁wa	-9.74639
▁establish	-9.74722
like	-9.74736
▁rank	-9.74801
▁remov	-9.74806
while	-9.74899
▁fer	-9.7495
▁prison	-9.75124
▁false	-9.75223
▁busy	-9.75231
▁woods	-9.75264
ger	-9.75342
▁thorough	-9.75495
▁telling	-9.75508
▁million	-9.75566
▁depend	-9.75598
▁aware	-9.75699
▁occurr	-9.75713
▁similar	-9.75794
▁amount	-9.75944
▁type	-9.75945
▁feature	-9.76097
over	-9.7628
▁dull	-9.76392
▁excuse	-9.76396
▁violent	-9.76396
▁flu	-9.76501
▁band	-9.76511
▁emperor	-9.76547
nt	-9.76617
▁song	-9.76677
▁loss	-9.76682
▁mistake	-9.76834
▁working	-9.76847
▁butter	-9.76937
▁smooth	-9.77002
▁strike	-9.77002
rose	-9.7705
▁treasure	-9.77219
▁horror	-9.77306
▁science	-9.77306
▁obey	-9.7731
▁tar	-9.77318
▁parent	-9.77338
▁corn	-9.77371
▁confess	-9.77396
▁splendid	-9.77458
▁f	-9.77503
▁cloth	-9.7755
▁necessity	-9.77592
▁religion	-9.77611
▁unknown	-9.77611
fe	-9.77692
▁fro	-9.77761
▁fierce	-9.77796
ga	-9.77801
▁cart	-9.77905
▁drove	-9.77918
▁el	-9.77931
tan	-9.78074
for	-9.78099
▁holy	-9.78144
▁rope	-9.78267
▁interesting	-9.78304
▁consent	-9.7838
▁comp	-9.78647
▁ab	-9.78678
▁task	-9.78688
▁sixt	-9.78724
▁hills	-9.78771
▁cow	-9.78889
▁witness	-9.78915
▁speed	-9.78918
▁drop	-9.78925
ler	-9.78978
▁powerful	-9.7898
▁liberty	-9.78996
▁minister	-9.78996
▁detail	-9.79005
▁houses	-9.79054
▁ka	-9.79118
▁savage	-9.79151
▁coast	-9.79307
▁van	-9.79362
▁bore	-9.79377
▁h	-9.79512
our	-9.79619
▁clever	-9.79646
▁pi	-9.79662
▁admit	-9.79759
▁couple	-9.79773
▁message	-9.79775
▁german	-9.79897
▁unto	-9.79899
▁temple	-9.7993
▁yesterday	-9.80086
▁sell	-9.80317
▁original	-9.80342
▁diamond	-9.804
▁prayer	-9.80522
▁th	-9.80603
▁progress	-9.80715
▁cottage	-9.80715
▁shock	-9.80715
▁sunday	-9.80725
▁wicked	-9.80728
▁sought	-9.8076
▁police	-9.80815
lly	-9.80816
▁represent	-9.80973
lt	-9.81069
▁bridge	-9.81147
▁oak	-9.81172
▁yield	-9.81188
▁ride	-9.81258
▁bath	-9.81527
hi	-9.81527
▁paus	-9.81565
▁suspect	-9.81665
▁lion	-9.81713
▁edward	-9.81833
▁eleven	-9.81983
▁teeth	-9.81993
▁advance	-9.82048
▁circle	-9.82119
▁je	-9.82162
▁america	-9.82267
▁cheer	-9.82381
▁depart	-9.82425
▁begg	-9.82555
▁injur	-9.82644
▁upper	-9.82791
▁pardon	-9.8295
▁native	-9.82954
▁charm	-9.83002
▁buri	-9.83232
▁insist	-9.83291
▁huge	-9.83292
▁nurse	-9.83372
▁satisfaction	-9.83455
▁maiden	-9.83581
▁gradual	-9.83593
▁countenance	-9.83593
ite	-9.83593
qui	-9.83669
▁foreign	-9.83755
▁carrying	-9.83785
▁min	-9.83798
▁james	-9.83806
▁dogs	-9.83917
▁mis	-9.83979
▁page	-9.83987
▁meal	-9.8405
▁silk	-9.8408
gu	-9.84203
▁professor	-9.84259
▁ceas	-9.84266
▁brothers	-9.84315
▁pipe	-9.84449
▁proof	-9.84578
▁occupie	-9.84589
▁ru	-9.84692
au	-9.8472
▁unfortunate	-9.84734
▁severe	-9.84804
▁pa	-9.84837
▁price	-9.84894
▁freedom	-9.84909
▁majesty	-9.85063
▁previous	-9.85063
lic	-9.85066
mber	-9.85082
▁farther	-9.85171
▁match	-9.8518
▁excitement	-9.85236
▁stage	-9.85292
▁convinc	-9.85393
▁spi	-9.85432
▁wi	-9.85474
▁acquaintance	-9.85736
▁physical	-9.85746
▁imagination	-9.85772
▁favour	-9.85826
▁bla	-9.85902
▁pin	-9.86067
▁alas	-9.86067
▁leading	-9.86108
▁seventeen	-9.8619
▁regret	-9.86224
▁faithful	-9.86427
▁record	-9.86556
▁cor	-9.86697
▁superior	-9.86723
ating	-9.86757
▁hotel	-9.86777
▁te	-9.86877
▁exercise	-9.86889
▁sheep	-9.86934
▁advice	-9.87058
▁fourth	-9.87094
▁conscious	-9.87145
▁praise	-9.87242
▁float	-9.87307
▁brow	-9.87349
gen	-9.87401
ub	-9.87413
em	-9.87424
▁refus	-9.87468
▁shame	-9.87557
▁stuff	-9.87568
▁cheerful	-9.87589
▁qua	-9.87728
▁curiosit	-9.87732
▁grief	-9.87732
▁afford	-9.87733
▁ju	-9.87869
▁considerabl	-9.87889
▁substance	-9.87901
▁article	-9.87902
▁level	-9.87903
▁mile	-9.88167
▁ser	-9.88186
▁lack	-9.88191
▁trace	-9.88221
▁consist	-9.88229
▁harm	-9.88286
▁practical	-9.88295
▁produce	-9.88305
▁control	-9.88308
▁aid	-9.88364
▁basket	-9.88411
▁sh	-9.8845
▁requir	-9.88491
▁nodd	-9.88562
▁pit	-9.88568
▁pot	-9.88602
▁hither	-9.88617
ept	-9.88731
▁deck	-9.88736
▁abandon	-9.88752
▁wit	-9.88817
▁struggle	-9.88941
▁dispos	-9.88993
▁jew	-9.88995
▁slipp	-9.89036
▁dangerous	-9.89152
▁fox	-9.89278
▁custom	-9.89286
ki	-9.89324
▁sacrifice	-9.89334
▁paul	-9.89459
▁excited	-9.89477
▁fairy	-9.8951
▁information	-9.89513
▁remarkabl	-9.89527
▁anger	-9.89592
▁ba	-9.89612
▁lies	-9.89616
▁continue	-9.89711
▁rubb	-9.89869
▁adam	-9.89986
▁strain	-9.89989
▁smith	-9.90127
▁importance	-9.90134
ile	-9.90171
ip	-9.90389
▁meat	-9.90526
▁divine	-9.90686
▁trail	-9.90687
▁flame	-9.90688
▁sides	-9.90782
▁anybody	-9.90823
▁delicate	-9.90997
▁fill	-9.91043
▁mor	-9.91103
▁fold	-9.91175
▁consideration	-9.91202
ches	-9.91229
gi	-9.91231
▁bottle	-9.9135
▁portion	-9.91623
▁sentence	-9.91699
▁throat	-9.91701
▁dawn	-9.91704
▁stars	-9.91771
▁protect	-9.91834
▁choose	-9.91835
▁desired	-9.91867
▁sevent	-9.91872
▁host	-9.92019
che	-9.9207
▁beg	-9.92116
fi	-9.92138
▁bodie	-9.92195
▁pet	-9.92286
▁pointed	-9.92305
▁extraordinar	-9.92404
▁dim	-9.92436
▁fl	-9.9253
▁farmer	-9.9257
▁modern	-9.92582
gun	-9.92605
ner	-9.92606
▁political	-9.92622
▁miser	-9.92658
▁plate	-9.9269
▁sailor	-9.92779
hood	-9.92807
▁rocks	-9.92825
rk	-9.92869
▁paint	-9.92875
▁brief	-9.93115
▁elsie	-9.93116
▁flesh	-9.93294
dying	-9.93407
▁ocean	-9.93473
▁governor	-9.935
▁odd	-9.93502
▁flow	-9.93615
▁suspicion	-9.93652
▁entrance	-9.93659
▁check	-9.93669
ville	-9.93741
ill	-9.93829
▁club	-9.93835
▁flight	-9.93844
▁capital	-9.94011
▁mamma	-9.94012
▁design	-9.94107
▁correct	-9.94192
ric	-9.94193
▁spend	-9.94202
▁crack	-9.94226
▁bab	-9.94273
▁specie	-9.94298
▁sensation	-9.94372
▁haven	-9.9441
ius	-9.94411
▁hurry	-9.94483
▁secure	-9.94485
some	-9.94547
▁innocent	-9.94553
▁proportion	-9.94553
▁midst	-9.94595
▁visibl	-9.94603
▁suffered	-9.94613
▁education	-9.94762
▁tu	-9.94803
▁frame	-9.94831
▁instrument	-9.94916
▁foolish	-9.9495
▁hang	-9.94973
▁hide	-9.95027
ral	-9.9504
▁reward	-9.9512
▁hunt	-9.95172
▁faces	-9.95173
▁nay	-9.95203
▁nineteen	-9.9528
▁argument	-9.95286
▁elder	-9.95338
▁imagin	-9.95381
▁neighbor	-9.95457
▁san	-9.95501
▁worst	-9.95509
▁lone	-9.95531
iness	-9.95687
▁practice	-9.95722
▁request	-9.95828
▁load	-9.95868
▁author	-9.9593
▁visitor	-9.96026
▁skill	-9.96072
▁distress	-9.96195
▁resum	-9.96198
▁stern	-9.96201
▁track	-9.96217
▁belief	-9.96228
▁worn	-9.96307
ative	-9.9635
▁civili	-9.96358
▁interrupted	-9.96379
▁fields	-9.96386
▁jewel	-9.96388
▁mental	-9.96401
▁sixteen	-9.96532
▁arch	-9.96573
▁card	-9.96616
▁tra	-9.9663
▁behold	-9.96644
▁wander	-9.96705
▁hunting	-9.96747
artagnan	-9.96749
▁enemie	-9.96749
▁operation	-9.96754
▁keen	-9.96808
▁fa	-9.969
▁v	-9.96918
▁depth	-9.96934
▁mysterious	-9.96934
▁sympath	-9.97085
▁bay	-9.97094
▁dread	-9.97095
▁pause	-9.97106
▁provid	-9.97223
▁val	-9.97224
▁hasten	-9.97224
▁relief	-9.97305
▁charming	-9.97314
▁apple	-9.97315
▁helen	-9.97321
▁shade	-9.97427
unt	-9.97428
▁choice	-9.97492
▁refuse	-9.97517
▁announc	-9.97671
▁calling	-9.97737
▁hate	-9.97782
▁useful	-9.97805
▁wake	-9.97826
▁bob	-9.97834
▁famous	-9.97865
▁appeal	-9.97865
▁mist	-9.97914
▁interested	-9.97919
▁ug	-9.97986
▁newspaper	-9.98052
▁plenty	-9.98053
▁roar	-9.98153
▁accomplish	-9.98212
▁nervous	-9.9824
▁chain	-9.98385
▁yo	-9.98419
▁heap	-9.98435
▁reflection	-9.98513
lan	-9.98602
▁cave	-9.98668
▁glory	-9.98805
▁merchant	-9.98805
ians	-9.98824
▁hence	-9.98938
▁lest	-9.98953
▁bearing	-9.98955
▁willing	-9.98989
▁queer	-9.98997
▁mix	-9.99022
▁union	-9.99222
▁cu	-9.99231
oo	-9.9936
ford	-9.99414
of	-9.9943
▁favor	-9.99584
▁root	-9.99589
▁region	-9.99594
▁separate	-9.99717
aw	-9.99727
▁jealous	-9.99754
▁slep	-9.99757
▁den	-9.99925
▁harry	-9.99969
▁furnish	-10.0014
▁companions	-10.0014
▁hale	-10.0026
▁delighted	-10.0027
▁arrival	-10.0031
▁absence	-10.0033
ible	-10.0036
▁consciousness	-10.0042
▁cre	-10.0046
nch	-10.0071
▁grasp	-10.0071
▁leader	-10.0077
▁sang	-10.0081
▁knife	-10.009
▁precious	-10.009
▁element	-10.0091
▁candle	-10.0093
▁ships	-10.01
▁scar	-10.01
▁bull	-10.0101
▁aim	-10.0102
tro	-10.0107
▁risk	-10.0111
▁ease	-10.0112
▁thunder	-10.0112
▁arrang	-10.0118
▁observe	-10.0122
▁trip	-10.0125
▁shell	-10.0132
up	-10.0143
▁vision	-10.0149
▁judgment	-10.015
▁thrust	-10.0168
▁delay	-10.0168
rank	-10.0175
▁observation	-10.0183
▁ob	-10.0184
▁lesson	-10.0186
▁includ	-10.0187
▁admire	-10.0187
▁raise	-10.0189
▁friendship	-10.0193
▁reader	-10.0199
▁waste	-10.0199
▁hit	-10.0207
▁principal	-10.0207
▁horn	-10.0227
▁apartment	-10.0248
▁alice	-10.0249
▁anyone	-10.0259
▁blame	-10.0259
▁burning	-10.0264
▁somebody	-10.0266
▁trembling	-10.0266
▁chest	-10.0276
▁hut	-10.0285
▁labour	-10.0285
▁recall	-10.0285
▁everywhere	-10.0288
▁thanks	-10.0302
▁popular	-10.0305
▁ph	-10.0306
▁pace	-10.0307
▁unhapp	-10.0308
▁hero	-10.0311
▁fighting	-10.0314
▁trial	-10.0317
▁assured	-10.0324
▁brilliant	-10.0325
ists	-10.0334
▁et	-10.0343
▁retreat	-10.0344
▁tear	-10.0346
▁cent	-10.0349
▁bas	-10.0363
▁ways	-10.0363
▁ghost	-10.0364
▁grandfather	-10.0364
▁militar	-10.0364
▁gar	-10.0367
▁wishes	-10.0371
▁forc	-10.0381
▁europe	-10.04
▁plac	-10.0403
shamed	-10.0404
▁warn	-10.0414
▁kindness	-10.0416
▁miserable	-10.0418
▁storie	-10.0424
▁gods	-10.0441
▁members	-10.0442
▁teach	-10.0452
▁peer	-10.0453
eal	-10.0459
▁urg	-10.0463
▁pursu	-10.0464
▁remind	-10.0484
▁span	-10.0493
▁maintain	-10.0504
▁motive	-10.0504
▁exten	-10.0505
▁sal	-10.0512
▁occasional	-10.0521
nny	-10.0531
wa	-10.0538
▁prompt	-10.0544
▁hesitate	-10.0545
▁fancie	-10.0547
▁eighty	-10.0549
stair	-10.0561
▁horribl	-10.0564
▁infinite	-10.0565
▁protest	-10.0583
tted	-10.0586
▁somewhere	-10.0592
▁mutter	-10.0605
▁bought	-10.0607
▁base	-10.0611
▁guide	-10.0611
▁neighbour	-10.0625
▁intelligence	-10.0625
▁energ	-10.0625
▁constitution	-10.0626
▁repeat	-10.0631
▁smell	-10.0646
▁string	-10.0646
▁hans	-10.0655
▁immense	-10.0666
▁religious	-10.0666
▁explanation	-10.0666
▁await	-10.0666
▁magic	-10.0667
▁hollow	-10.0667
abeth	-10.0668
▁active	-10.0675
▁scream	-10.0686
▁sold	-10.0687
▁manage	-10.0691
▁flying	-10.0706
▁vague	-10.0707
▁ut	-10.0711
▁inclin	-10.0723
▁stupid	-10.0727
▁dignity	-10.0727
▁vanish	-10.073
ldom	-10.0732
▁dan	-10.0735
▁pitch	-10.0743
▁reckon	-10.0748
▁stiff	-10.0748
▁rang	-10.075
▁squ	-10.0767
▁fri	-10.0774
▁cabin	-10.0775
tra	-10.0784
▁accustom	-10.0789
▁accident	-10.079
▁stole	-10.079
ress	-10.0793
▁fla	-10.0798
▁nest	-10.0799
field	-10.0807
▁anxiet	-10.081
▁shelter	-10.081
▁rome	-10.0813
ified	-10.082
▁trick	-10.0822
▁comfortable	-10.0826
▁grim	-10.0827
▁becoming	-10.0828
▁weapon	-10.0831
▁style	-10.0831
▁admitted	-10.0833
▁safety	-10.0838
▁tremble	-10.0852
▁print	-10.0853
▁weary	-10.0857
ward	-10.0865
▁credit	-10.0872
▁doors	-10.0879
▁conclusion	-10.0893
▁unusual	-10.0893
▁rat	-10.0895
▁sam	-10.0929
▁birth	-10.0935
▁david	-10.0935
▁hanging	-10.0943
▁understanding	-10.0945
▁fun	-10.0952
▁names	-10.0961
ide	-10.0975
▁betray	-10.0978
▁shak	-10.0992
▁inter	-10.0994
▁dreams	-10.1009
▁examin	-10.1016
one	-10.1016
liness	-10.102
▁marked	-10.1038
▁display	-10.1041
▁member	-10.1042
▁sentiment	-10.1052
nder	-10.1052
▁spare	-10.1054
▁whil	-10.1058
▁brush	-10.1062
▁prospect	-10.1062
▁gay	-10.1063
▁pile	-10.1066
▁successful	-10.1066
▁surround	-10.1071
▁rec	-10.1095
tuck	-10.1095
▁signal	-10.1101
▁mood	-10.1105
▁universal	-10.1126
mon	-10.1147
▁wolf	-10.1147
▁philip	-10.1148
▁vo	-10.1151
▁jim	-10.1154
▁dri	-10.117
ach	-10.1174
▁appoint	-10.1187
held	-10.1189
▁conscience	-10.119
▁female	-10.119
▁fortunate	-10.119
▁gleam	-10.119
▁reduc	-10.1195
▁eggs	-10.1216
▁hasti	-10.1218
▁pink	-10.122
▁somehow	-10.1244
▁hungr	-10.1245
▁billy	-10.1252
▁unconscious	-10.1255
▁bishop	-10.1277
▁peasant	-10.1277
▁connection	-10.1278
▁lawyer	-10.1279
▁continual	-10.129
▁rage	-10.1294
▁develop	-10.1296
house	-10.1298
▁heavi	-10.13
▁supply	-10.1318
▁mal	-10.1334
▁trans	-10.1348
▁painful	-10.1349
▁process	-10.1358
▁jesu	-10.137
▁joe	-10.1372
▁cease	-10.1383
▁relation	-10.1385
▁scatter	-10.1386
▁christmas	-10.1386
▁crew	-10.139
▁dash	-10.1393
▁points	-10.1394
▁centre	-10.1398
▁escap	-10.1398
▁apart	-10.1405
▁attain	-10.1408
▁throne	-10.1409
▁dirt	-10.1412
▁exhaust	-10.143
▁reveal	-10.143
▁adopt	-10.143
▁cliff	-10.143
▁merry	-10.143
▁wasn	-10.1431
▁sylvia	-10.1452
ett	-10.1472
▁misfortune	-10.1474
▁feast	-10.1474
▁branche	-10.1482
ator	-10.1488
▁fetch	-10.1496
▁gri	-10.15
▁setting	-10.1502
▁mac	-10.151
▁rear	-10.1513
ium	-10.1518
▁fought	-10.1518
▁dragg	-10.1521
fa	-10.1523
▁fled	-10.153
▁attract	-10.1532
▁mercy	-10.1541
▁source	-10.1541
▁u	-10.1558
▁robin	-10.1566
▁delightful	-10.1568
▁haste	-10.1569
▁council	-10.1585
▁patience	-10.1585
▁quantit	-10.1586
▁rag	-10.1591
▁attitude	-10.1592
▁victory	-10.1596
ven	-10.1616
▁title	-10.1631
▁concerned	-10.1635
val	-10.1647
▁triumph	-10.1651
bra	-10.1656
▁pur	-10.1661
▁defend	-10.1675
▁describ	-10.1683
▁baron	-10.1684
▁expos	-10.1702
▁whi	-10.1706
▁tis	-10.1707
▁forehead	-10.1722
▁sex	-10.1729
▁describe	-10.1736
▁encounter	-10.1743
▁ideal	-10.1745
▁hint	-10.1745
▁sank	-10.1748
▁entertain	-10.1786
▁giant	-10.1792
ars	-10.1797
▁halt	-10.18
▁national	-10.1805
▁troops	-10.1806
right	-10.1815
▁gu	-10.1817
▁returning	-10.1827
▁positive	-10.1835
▁loving	-10.1835
▁dared	-10.184
ugh	-10.1842
▁older	-10.1848
▁college	-10.1858
▁novel	-10.1858
▁ow	-10.1859
▁pig	-10.1864
▁deni	-10.1875
▁test	-10.1881
▁mortal	-10.1881
▁flag	-10.1882
▁propos	-10.1884
▁boots	-10.1885
▁distinguished	-10.1891
▁writer	-10.1895
▁fasten	-10.1905
▁guilty	-10.1911
▁retir	-10.1911
▁metal	-10.1912
▁estate	-10.1927
▁organi	-10.1928
▁relative	-10.1929
loud	-10.1933
▁relations	-10.1934
▁bal	-10.1938
▁thoughtful	-10.1939
▁qui	-10.1943
▁permitt	-10.1947
▁accompanie	-10.195
▁robert	-10.1951
▁bride	-10.1951
▁chi	-10.1956
ran	-10.1963
▁clock	-10.1963
hor	-10.1965
▁mus	-10.1967
▁hast	-10.1972
▁admiration	-10.1974
▁melanchol	-10.1974
▁fourteen	-10.1974
▁venture	-10.1975
▁cake	-10.1981
▁soil	-10.1985
ney	-10.1993
▁waters	-10.1993
▁shone	-10.1998
▁quarrel	-10.2005
▁smok	-10.2006
▁volume	-10.202
▁dancing	-10.202
▁greek	-10.2022
▁fleet	-10.2024
▁discovery	-10.2024
upon	-10.2031
▁divid	-10.2039
▁condemn	-10.2044
▁consult	-10.2044
▁witch	-10.2045
▁sheet	-10.2046
ook	-10.2048
▁sha	-10.205
▁magnificent	-10.2055
fall	-10.2057
▁build	-10.2064
▁attach	-10.2065
her	-10.2066
▁arrow	-10.2067
▁incident	-10.2067
▁recent	-10.2069
▁arrangement	-10.2069
▁assist	-10.2072
▁widow	-10.2091
▁beard	-10.2091
▁market	-10.2091
▁tent	-10.2093
▁desperate	-10.2101
rid	-10.2104
▁precise	-10.2114
▁current	-10.2114
▁spoil	-10.2114
▁wisdom	-10.2114
ker	-10.2116
▁bark	-10.2118
▁wretched	-10.212
▁che	-10.2131
▁wooden	-10.2133
▁resist	-10.2136
▁obvious	-10.2138
▁sensible	-10.2153
▁august	-10.216
▁select	-10.2162
▁sub	-10.2162
▁inhabitant	-10.2162
▁useless	-10.2168
▁shake	-10.2172
▁arrest	-10.2185
▁poison	-10.2186
bbe	-10.2186
▁preserv	-10.2192
▁swallow	-10.2209
▁slid	-10.2209
▁alter	-10.221
▁sport	-10.2211
▁block	-10.2211
▁ninety	-10.2216
▁range	-10.2229
▁interval	-10.2234
ada	-10.2234
▁bade	-10.2242
jo	-10.2244
▁worship	-10.2252
worth	-10.2255
▁provision	-10.2257
▁striking	-10.2257
▁lamb	-10.2265
▁fu	-10.2266
▁burden	-10.2282
▁departure	-10.2283
▁lap	-10.2287
▁heel	-10.2299
▁fad	-10.2303
▁sacred	-10.2305
▁meadow	-10.2305
▁park	-10.2305
▁solid	-10.2306
▁limb	-10.2316
▁elect	-10.2323
▁pine	-10.2326
▁intense	-10.233
▁flush	-10.2331
▁powder	-10.2335
▁fix	-10.2338
▁becomes	-10.2338
▁lucy	-10.2341
▁ven	-10.235
▁earlie	-10.235
▁oppos	-10.2353
▁mid	-10.2353
▁british	-10.2353
▁commenc	-10.2353
▁everyone	-10.2362
▁list	-10.237
line	-10.2373
▁agreeable	-10.2373
▁voyage	-10.2377
▁southern	-10.2378
▁bosom	-10.2378
▁awaken	-10.2385
cur	-10.2394
▁appli	-10.2398
▁essential	-10.2402
▁household	-10.2406
▁manag	-10.2409
▁ste	-10.2423
▁project	-10.2426
▁experiment	-10.2426
▁joseph	-10.2426
▁mystery	-10.2427
▁blush	-10.2427
▁acquaint	-10.2428
▁wedding	-10.244
lm	-10.2445
▁curtain	-10.245
▁intellect	-10.245
▁punish	-10.2472
▁instinct	-10.2473
▁drift	-10.2475
▁fi	-10.2479
▁wire	-10.2489
▁fo	-10.2495
▁resolution	-10.2499
▁introduc	-10.25
▁rude	-10.2503
▁preparation	-10.2503
▁bi	-10.2513
▁bri	-10.2516
▁humble	-10.2519
▁victim	-10.2524
▁flood	-10.2524
▁julia	-10.2524
▁summon	-10.2525
▁civil	-10.2527
▁duti	-10.2528
▁chin	-10.2539
▁mode	-10.254
▁din	-10.254
▁relat	-10.2545
▁readi	-10.2546
▁ke	-10.2546
▁lodge	-10.255
▁feed	-10.2553
▁awake	-10.2566
▁fatal	-10.2569
▁confusion	-10.2573
▁unexpected	-10.2573
▁teacher	-10.2578
▁patch	-10.2584
▁anna	-10.2588
▁seal	-10.2596
▁fellows	-10.2597
▁mingl	-10.2604
▁careless	-10.2607
▁wondering	-10.2617
▁committ	-10.2618
▁catherine	-10.2623
▁parliament	-10.2623
▁profound	-10.2623
▁hearts	-10.2629
uous	-10.2634
▁louis	-10.2637
▁sovereign	-10.2648
▁singular	-10.2648
▁echo	-10.2649
▁assistance	-10.265
▁gown	-10.2656
▁owner	-10.2662
▁oil	-10.2665
▁pictures	-10.2668
▁strict	-10.2673
▁punishment	-10.2675
▁steel	-10.2679
▁showing	-10.2689
▁gesture	-10.2698
▁verse	-10.2699
▁torn	-10.2699
▁mistaken	-10.2701
▁ain	-10.2711
▁consequent	-10.2723
▁scrap	-10.2723
▁sugar	-10.2723
▁saddle	-10.2724
▁cl	-10.2736
▁struggl	-10.2745
▁rep	-10.2752
▁steal	-10.2753
▁conclud	-10.2771
▁improv	-10.2772
▁mon	-10.2773
▁embrace	-10.2773
▁profit	-10.2773
▁disease	-10.2773
▁impatient	-10.2775
mar	-10.2787
▁amuse	-10.2795
▁domestic	-10.2798
▁genius	-10.2799
▁compell	-10.2799
▁veil	-10.2801
▁trap	-10.2801
▁rous	-10.2802
▁agent	-10.2804
▁curl	-10.2809
▁ko	-10.2818
ification	-10.2819
▁description	-10.2824
▁reign	-10.2824
▁darling	-10.2825
abilit	-10.283
▁composed	-10.2832
▁cal	-10.2834
▁log	-10.2845
▁enormous	-10.2849
▁works	-10.2854
▁affected	-10.2861
▁wal	-10.2867
▁steadi	-10.2879
▁hori	-10.2884
▁deed	-10.2892
▁tight	-10.2897
▁intimate	-10.29
▁pole	-10.2901
▁kate	-10.2902
▁leaning	-10.2903
▁countess	-10.2903
▁tribe	-10.2906
▁ere	-10.2924
▁handkerchief	-10.2926
▁problem	-10.2926
▁midnight	-10.2926
▁crush	-10.2926
▁tramp	-10.2927
▁bush	-10.2934
▁preced	-10.2934
▁stir	-10.294
▁perceive	-10.2945
▁discuss	-10.2945
▁objection	-10.2958
ex	-10.2963
▁cock	-10.2963
▁folk	-10.2963
▁bond	-10.2973
▁drown	-10.2977
▁official	-10.2977
▁pierre	-10.2977
▁scheme	-10.2977
▁assure	-10.2985
ole	-10.2986
▁owe	-10.2993
▁adventure	-10.3009
▁coal	-10.3015
▁devoted	-10.3017
▁stroke	-10.302
▁intellectual	-10.3029
▁carpet	-10.3029
har	-10.3029
▁connected	-10.3035
mond	-10.3036
▁driv	-10.304
▁negro	-10.3054
▁retain	-10.3054
▁ascend	-10.3054
▁garment	-10.3058
▁col	-10.306
▁har	-10.3075
▁ignorant	-10.3081
▁stable	-10.3099
▁notes	-10.3104
▁coffee	-10.3106
▁nonsens	-10.3106
ina	-10.3108
▁l	-10.3138
▁bless	-10.3147
ette	-10.3149
▁generous	-10.3159
▁plunge	-10.316
▁merit	-10.316
▁assum	-10.319
▁younger	-10.3194
▁job	-10.3196
▁suggestion	-10.3201
art	-10.3202
▁declare	-10.3203
▁stamp	-10.3211
▁trunk	-10.3211
▁doubtless	-10.3215
▁hunter	-10.3229
▁fearful	-10.3229
▁anti	-10.3234
▁j	-10.3248
gratitude	-10.3256
▁modest	-10.3258
▁assert	-10.3259
port	-10.3263
▁privilege	-10.3264
▁craft	-10.3264
▁steep	-10.3264
▁salut	-10.3265
▁supplie	-10.3267
▁buck	-10.3269
▁sole	-10.3281
more	-10.3283
▁gen	-10.3287
▁endeavour	-10.3291
▁sweep	-10.3291
▁shoot	-10.33
▁button	-10.3312
▁ski	-10.3316
▁absorb	-10.3317
▁empire	-10.3317
▁expedition	-10.3317
▁erect	-10.3318
▁offend	-10.3321
▁destin	-10.3339
▁thirst	-10.3344
▁contract	-10.3344
▁wagon	-10.3344
▁patt	-10.3348
▁notion	-10.3353
▁rub	-10.3359
▁arrive	-10.3369
▁ve	-10.3369
▁winds	-10.3374
▁atmosphere	-10.3375
▁stands	-10.3391
▁prevail	-10.3397
▁clasp	-10.3398
▁tad	-10.3415
▁feared	-10.3424
▁eternal	-10.3424
▁neglect	-10.3424
▁squire	-10.3424
▁creep	-10.3424
▁guns	-10.3425
▁electric	-10.3425
ang	-10.3433
▁katy	-10.3434
▁expense	-10.3451
▁possibilit	-10.3451
▁stout	-10.3454
▁palm	-10.3463
▁district	-10.3478
▁leaf	-10.3478
▁failure	-10.3482
▁jean	-10.3484
▁hay	-10.3485
sses	-10.3502
▁numerous	-10.3505
▁june	-10.3509
work	-10.3515
▁hunger	-10.352
▁threaten	-10.3521
▁com	-10.3524
▁polite	-10.3525
▁cab	-10.353
▁recommend	-10.3533
▁librar	-10.3533
▁bushe	-10.3555
▁traveller	-10.3556
▁richard	-10.3558
▁complain	-10.3559
▁preach	-10.3561
▁gra	-10.3563
▁affect	-10.3568
▁knights	-10.358
▁mirror	-10.3587
▁disposition	-10.3588
gan	-10.3594
▁anywhere	-10.3595
▁loft	-10.3601
▁pretend	-10.3602
▁crep	-10.3603
▁comb	-10.3604
▁bid	-10.3617
▁luc	-10.3623
▁protection	-10.3624
▁gro	-10.3635
▁invited	-10.3635
▁hell	-10.3638
▁benefit	-10.3642
▁thomas	-10.3642
▁settle	-10.366
tur	-10.3661
▁sore	-10.3661
▁strip	-10.3664
▁reproach	-10.367
▁clerk	-10.367
▁earn	-10.3678
▁drunk	-10.369
▁mud	-10.3694
▁monte	-10.3697
▁uniform	-10.3697
▁generation	-10.3697
▁maybe	-10.3699
▁groan	-10.3701
gue	-10.3711
▁idle	-10.3712
▁warning	-10.3725
▁western	-10.3726
▁opera	-10.3727
▁batter	-10.3727
▁score	-10.3728
▁contempt	-10.3752
▁leisure	-10.3753
▁lieutenant	-10.3753
▁violence	-10.3753
▁monster	-10.3754
▁barn	-10.3758
▁steam	-10.3761
▁fin	-10.3775
▁ceremon	-10.3777
▁twist	-10.3781
laughter	-10.3799
▁ornament	-10.3809
▁counsel	-10.3809
▁bench	-10.3814
▁bones	-10.3822
▁andrew	-10.3824
▁robber	-10.3828
▁sons	-10.383
▁collect	-10.383
▁variet	-10.3838
▁studie	-10.3846
▁unre	-10.3858
▁banks	-10.3859
▁statement	-10.386
▁local	-10.3863
▁stoop	-10.3865
oon	-10.3871
▁restor	-10.3871
oc	-10.3875
ash	-10.3879
▁bon	-10.3881
▁dart	-10.3889
▁northern	-10.3893
▁flo	-10.3896
▁tre	-10.3911
▁hospital	-10.3916
▁rent	-10.3929
▁br	-10.3937
▁isabel	-10.3947
▁nerve	-10.3949
▁bloom	-10.395
▁madam	-10.3951
▁flatter	-10.3954
▁wandering	-10.3957
▁tip	-10.3965
▁ambition	-10.3978
▁monk	-10.3981
▁rail	-10.3985
ou	-10.4002
▁confirm	-10.4006
▁rabbit	-10.4006
▁regiment	-10.4006
▁furious	-10.4008
▁spell	-10.4009
▁bestow	-10.4012
▁plead	-10.4018
▁pant	-10.4025
▁amid	-10.4026
▁deny	-10.4028
▁nut	-10.403
▁ralph	-10.4035
▁chill	-10.4035
▁thread	-10.4036
▁prefer	-10.404
we	-10.4044
▁harmon	-10.4046
▁straw	-10.4057
nda	-10.406
▁merri	-10.4061
▁confin	-10.4063
▁mankind	-10.4064
▁cattle	-10.4065
▁execution	-10.4069
▁tide	-10.407
ib	-10.4073
▁exceeding	-10.4082
▁exhibit	-10.4086
▁slip	-10.4087
▁valuable	-10.4092
▁convey	-10.4092
▁tax	-10.4096
▁supreme	-10.4107
▁date	-10.4118
▁province	-10.4121
▁grateful	-10.4121
▁spiritual	-10.4121
▁factor	-10.4122
▁diana	-10.4123
▁haunt	-10.4123
▁crawl	-10.4125
▁ram	-10.4125
▁dragon	-10.4126
▁noon	-10.4133
▁china	-10.4134
▁vari	-10.4135
▁ruth	-10.4141
▁gasp	-10.4144
well	-10.416
▁pearl	-10.4166
▁unc	-10.4166
▁rays	-10.4167
▁glow	-10.4176
▁quarters	-10.4179
▁thirteen	-10.4179
▁development	-10.4183
▁intent	-10.4184
rous	-10.4188
▁gather	-10.4189
broad	-10.4194
▁wet	-10.4196
▁forces	-10.4202
▁bat	-10.4205
▁arab	-10.4207
▁interview	-10.4208
▁spectacle	-10.4208
▁brook	-10.4208
▁rod	-10.421
▁fra	-10.4215
▁neat	-10.422
▁weakness	-10.4227
▁audience	-10.4237
▁aspect	-10.4237
▁insult	-10.4237
▁disappointment	-10.4238
▁sooth	-10.4241
▁feather	-10.4242
▁endure	-10.4248
▁assembl	-10.4258
▁total	-10.4265
▁esteem	-10.4266
▁invitation	-10.4266
▁publish	-10.4266
▁passenger	-10.4266
▁revolution	-10.4267
▁desk	-10.4268
▁irish	-10.4268
▁bree	-10.428
▁beaten	-10.4288
▁purple	-10.4296
▁impulse	-10.4296
▁obedien	-10.4296
▁swear	-10.4296
▁mock	-10.4305
▁fifth	-10.4306
▁fever	-10.4306
ap	-10.4311
▁eaten	-10.4311
can	-10.4315
▁countrie	-10.4318
ison	-10.432
▁celebrat	-10.4325
▁grandmother	-10.4325
▁shudder	-10.4325
▁sunshine	-10.4325
▁artist	-10.4329
▁stirr	-10.4334
▁inspir	-10.435
▁abrupt	-10.4355
▁snake	-10.4355
▁marilla	-10.4355
▁marble	-10.4357
▁walter	-10.4357
▁tie	-10.4363
▁tend	-10.4373
▁kit	-10.4378
▁cultivat	-10.4384
▁furniture	-10.4384
▁steady	-10.4386
ington	-10.4388
▁arise	-10.439
▁male	-10.4399
▁blessing	-10.4413
▁error	-10.4416
▁doll	-10.4417
▁conviction	-10.4418
▁melt	-10.4421
rt	-10.4422
▁agon	-10.4427
▁helpless	-10.4435
rice	-10.4436
▁medicine	-10.4444
▁italian	-10.4444
withstand	-10.4445
▁mild	-10.4447
▁branch	-10.4464
▁mourn	-10.4471
▁independent	-10.4473
▁belov	-10.4474
▁linger	-10.4475
ddle	-10.4475
▁oliver	-10.4478
▁dwell	-10.4484
▁physician	-10.4505
▁cro	-10.4533
▁florence	-10.4533
▁mouse	-10.4535
▁poem	-10.4535
▁permit	-10.4538
▁gas	-10.4551
▁destruction	-10.4564
▁messenger	-10.4564
▁tristram	-10.4564
▁chap	-10.4582
▁thornton	-10.4595
▁pierc	-10.4597
▁virginia	-10.4598
▁lightning	-10.4599
▁backward	-10.4606
ake	-10.4607
▁issue	-10.4616
▁created	-10.4621
▁handle	-10.4623
▁plum	-10.4627
▁deserve	-10.4634
▁pl	-10.4637
don	-10.4642
▁robe	-10.4644
▁rifle	-10.4654
▁kick	-10.4656
pho	-10.4668
▁conquer	-10.4676
▁goat	-10.4678
▁accord	-10.4679
▁glorious	-10.4685
▁multitude	-10.4685
▁leather	-10.4685
▁absent	-10.4685
▁debt	-10.4685
ries	-10.4712
▁catholic	-10.4716
▁dangl	-10.4716
▁flour	-10.4717
▁chase	-10.4721
▁borne	-10.4725
▁polly	-10.4731
▁shirt	-10.4746
▁collar	-10.4747
▁pursuit	-10.4751
▁cries	-10.4751
▁dearest	-10.4762
▁chris	-10.4766
bury	-10.4771
▁tempt	-10.4772
ug	-10.4773
▁griev	-10.4776
▁disgust	-10.4777
▁silly	-10.4781
lia	-10.4784
▁bidd	-10.4785
▁manners	-10.4791
▁galler	-10.4794
▁convers	-10.4803
▁absurd	-10.4813
▁franc	-10.4831
▁acquir	-10.4831
▁folks	-10.4835
▁upward	-10.4838
▁rachel	-10.4839
▁washington	-10.484
▁engagement	-10.4841
▁beach	-10.4843
▁nail	-10.4845
▁discussion	-10.4846
▁polish	-10.4871
▁joke	-10.4873
▁swell	-10.4874
▁beam	-10.4886
▁commander	-10.4888
▁goodness	-10.49
▁lincoln	-10.4901
▁student	-10.4902
▁russian	-10.4919
▁div	-10.4921
▁slope	-10.4924
chi	-10.4931
▁disgrace	-10.4932
▁poverty	-10.4932
▁indulg	-10.4932
▁staff	-10.4932
▁cheese	-10.4933
▁instruction	-10.4936
ency	-10.4939
▁char	-10.4939
ith	-10.4953
▁someone	-10.4958
▁farewell	-10.4964
▁entreat	-10.4964
▁needs	-10.4964
▁peep	-10.4965
▁lunch	-10.4965
▁scale	-10.4966
▁spur	-10.4972
▁rum	-10.4972
▁decision	-10.4995
▁pistol	-10.4995
▁pie	-10.5007
▁disturbed	-10.5008
▁ter	-10.5009
▁gates	-10.5011
▁surrounding	-10.5013
▁compar	-10.5016
▁enthusiasm	-10.5027
▁stain	-10.5027
▁undertake	-10.5027
▁mule	-10.5027
▁definite	-10.5027
▁mont	-10.5047
board	-10.505
▁facult	-10.5058
▁committee	-10.5059
▁fence	-10.506
▁simon	-10.5061
▁nu	-10.5068
▁ned	-10.5079
▁impress	-10.5083
atory	-10.5086
▁counter	-10.5092
▁tomb	-10.5102
▁vice	-10.5103
▁sincere	-10.5107
▁unpleasant	-10.5122
▁frown	-10.5122
▁jest	-10.513
▁del	-10.5143
dom	-10.5145
▁disappointed	-10.5145
▁famili	-10.5151
▁cloak	-10.5154
▁humanity	-10.5159
▁occur	-10.5171
▁cell	-10.5172
▁preserve	-10.5182
▁dwarf	-10.5186
▁philosopher	-10.5186
▁defeat	-10.5186
▁overcome	-10.5186
▁wip	-10.5187
▁startle	-10.5193
▁memor	-10.5213
▁shy	-10.5216
▁por	-10.5217
▁gracious	-10.5218
▁remote	-10.5218
bel	-10.5232
▁pool	-10.5239
▁mari	-10.524
all	-10.5241
▁dig	-10.5249
▁starv	-10.5249
▁shriek	-10.525
▁cutting	-10.5254
pen	-10.5259
▁coward	-10.5265
▁jol	-10.5274
▁vote	-10.5278
▁border	-10.5283
▁monkey	-10.5283
▁hook	-10.5284
▁emily	-10.5291
▁rob	-10.5299
▁blo	-10.5307
▁abilit	-10.5308
▁ventur	-10.5314
▁glimpse	-10.5315
▁bolt	-10.5317
▁rug	-10.532
▁origin	-10.5327
▁net	-10.533
▁murderer	-10.5333
▁jar	-10.5342
▁dish	-10.5346
▁coach	-10.5348
▁wrappe	-10.5356
▁profession	-10.5372
ux	-10.5373
▁cunning	-10.538
▁institution	-10.538
▁compliment	-10.5381
▁pony	-10.5385
▁eyed	-10.5386
▁receiv	-10.5389
▁kin	-10.5392
▁proceeding	-10.5397
wn	-10.5398
▁weigh	-10.5399
▁teaching	-10.5409
▁lit	-10.5409
▁organ	-10.5412
▁fitt	-10.5412
▁sch	-10.5413
▁appetite	-10.5413
▁reputation	-10.5415
▁graceful	-10.5423
▁lane	-10.5432
▁platform	-10.5446
▁phrase	-10.5446
▁honey	-10.5448
▁manifest	-10.5474
▁opposition	-10.5479
▁rejoin	-10.5479
▁boast	-10.5479
▁dining	-10.548
lar	-10.5489
▁distinction	-10.5495
▁growth	-10.5504
▁prepar	-10.551
▁susan	-10.5512
▁feeble	-10.5513
▁dislike	-10.5515
ko	-10.5516
▁sale	-10.5517
▁inclination	-10.5521
▁wage	-10.5525
▁indicat	-10.5531
▁elbow	-10.5545
▁nicholas	-10.5545
▁satisfy	-10.5545
▁piano	-10.5546
▁cord	-10.5547
▁deem	-10.5554
▁frog	-10.556
▁weeping	-10.5563
▁fil	-10.5563
▁dar	-10.5564
how	-10.5568
▁breed	-10.5571
▁product	-10.5574
▁oath	-10.5576
▁channel	-10.5579
▁slain	-10.5579
▁spear	-10.5579
▁characteristic	-10.558
▁exchange	-10.5602
▁dressing	-10.5607
▁conception	-10.5612
▁contribut	-10.5612
▁timid	-10.5613
▁twin	-10.5614
▁eve	-10.5615
ick	-10.5621
▁dwelling	-10.5622
▁causes	-10.5624
▁mil	-10.5626
▁clay	-10.5628
▁nap	-10.5632
▁ben	-10.5634
▁center	-10.5635
▁clo	-10.5645
▁whirl	-10.5646
fare	-10.5657
cut	-10.5662
▁dusk	-10.5669
▁deriv	-10.5676
▁column	-10.5679
▁revenge	-10.5679
▁rival	-10.5681
▁norman	-10.5683
▁passionate	-10.5684
lon	-10.5687
ana	-10.5689
▁selfish	-10.569
▁ages	-10.5698
▁hol	-10.57
▁encourage	-10.571
▁thrill	-10.5713
▁repair	-10.5713
▁swing	-10.5719
▁treatment	-10.5723
▁guards	-10.5729
▁vol	-10.5731
▁ban	-10.5735
▁indifferent	-10.5747
▁thither	-10.5747
▁pepper	-10.5747
▁capacit	-10.5748
▁gallant	-10.5748
▁weari	-10.5766
▁recollect	-10.5775
cation	-10.5777
▁respond	-10.5781
▁shield	-10.5781
▁separat	-10.5781
▁harsh	-10.5783
▁humor	-10.5785
▁brick	-10.5785
▁ashe	-10.5813
▁cautious	-10.5815
▁function	-10.5815
▁mischief	-10.5815
▁tremendous	-10.5815
▁smart	-10.5815
gar	-10.5817
▁forever	-10.584
▁govern	-10.5841
▁luxur	-10.5848
▁sultan	-10.5849
▁flutter	-10.5849
▁cheap	-10.585
▁dismiss	-10.5851
▁flock	-10.5853
▁ward	-10.5865
▁rein	-10.5877
▁endeavor	-10.5884
▁waist	-10.5888
▁mate	-10.5892
▁toil	-10.5893
▁nan	-10.5893
▁remove	-10.5905
▁italy	-10.591
▁accuse	-10.5918
▁africa	-10.5918
▁monarch	-10.5919
▁beating	-10.5933
▁medi	-10.5935
▁expectation	-10.594
▁herbert	-10.5949
▁distinguish	-10.5951
▁rejoice	-10.5953
▁pillow	-10.5953
▁grove	-10.5962
▁greet	-10.5963
▁perish	-10.5964
▁bou	-10.5969
▁bowl	-10.5976
ai	-10.5979
▁hopeless	-10.5981
▁philosophy	-10.5988
▁bernard	-10.5988
▁foe	-10.5991
▁sunk	-10.5993
▁swu	-10.5994
▁sway	-10.5994
▁approv	-10.6001
▁dun	-10.6009
sail	-10.6019
▁industr	-10.602
▁fascinat	-10.6022
▁fountain	-10.6022
▁league	-10.6022
▁reference	-10.6022
▁ignorance	-10.6024
▁duck	-10.6029
▁partner	-10.6037
▁rolling	-10.604
▁lights	-10.6047
▁execut	-10.6049
▁prophet	-10.6057
▁shiver	-10.6057
▁neighbourhood	-10.6058
▁representative	-10.6058
hu	-10.6064
▁perch	-10.6073
▁angle	-10.6076
▁purse	-10.6076
▁doctrine	-10.6092
▁chimney	-10.6093
▁purchase	-10.6095
▁eu	-10.6109
ob	-10.6124
▁autumn	-10.6128
▁confused	-10.6128
▁disguise	-10.6128
▁cristo	-10.6129
▁permissi	-10.6129
▁theatre	-10.6129
▁belt	-10.6132
▁secur	-10.6136
▁belonging	-10.6141
▁decide	-10.6148
▁grain	-10.6151
▁compos	-10.6161
▁bewilder	-10.6163
▁continent	-10.6163
▁occupation	-10.6163
▁retort	-10.6163
▁vigorous	-10.6164
▁hatred	-10.6165
▁community	-10.6166
▁comment	-10.6167
▁communication	-10.6167
▁easi	-10.6172
▁motionless	-10.6175
▁fed	-10.6177
▁sur	-10.6191
▁criminal	-10.6199
▁scientific	-10.6199
▁shift	-10.6199
▁vivid	-10.6199
▁duchess	-10.6199
▁avail	-10.6199
▁freely	-10.6199
▁gru	-10.6199
▁johnson	-10.62
ja	-10.6202
▁damp	-10.6211
igh	-10.6222
▁fog	-10.6226
▁examine	-10.6231
▁contrast	-10.6234
▁slender	-10.6234
▁map	-10.6236
▁needle	-10.6237
▁amusement	-10.6238
▁plot	-10.6243
▁quot	-10.6251
▁prey	-10.6253
▁epi	-10.6254
▁dale	-10.6256
▁snatch	-10.627
▁uncertain	-10.627
▁planet	-10.6272
▁association	-10.6273
▁pressure	-10.6274
▁inner	-10.6276
▁apply	-10.6281
rity	-10.6284
▁super	-10.6286
▁restless	-10.6295
▁whip	-10.6295
▁depriv	-10.6306
▁attendant	-10.6311
▁sparkl	-10.6312
▁rules	-10.6313
▁enjoyment	-10.6316
▁pretended	-10.6322
atic	-10.6325
ria	-10.6334
▁reform	-10.6342
▁naked	-10.6342
▁talent	-10.6344
▁toby	-10.6344
▁albert	-10.6344
▁mat	-10.6345
▁worry	-10.6351
▁doubtful	-10.6363
▁torture	-10.6375
▁deliberate	-10.6378
▁intelligent	-10.6378
▁sensitive	-10.6378
▁pupil	-10.6378
▁yonder	-10.6379
▁frightful	-10.6379
▁assume	-10.6385
han	-10.6387
▁hadn	-10.639
▁standard	-10.6413
▁magistrate	-10.6414
▁shepherd	-10.6414
▁stomach	-10.6414
▁renew	-10.6415
▁venge	-10.6416
▁bud	-10.6444
▁disturb	-10.6444
▁indign	-10.6449
▁portrait	-10.645
▁favorite	-10.6451
▁cream	-10.6453
ttle	-10.6457
▁brand	-10.6461
ctor	-10.6463
▁hedge	-10.6466
ulat	-10.6487
▁ceter	-10.6487
▁fr	-10.6491
▁divers	-10.6494
▁secretary	-10.6495
▁der	-10.6498
▁gathering	-10.65
▁yell	-10.6507
▁shooting	-10.6511
▁humour	-10.6524
▁nav	-10.6528
ella	-10.6529
▁acknowledg	-10.6533
set	-10.6534
▁jaw	-10.6535
▁lust	-10.6542
▁activity	-10.6543
▁keeper	-10.6546
▁ger	-10.6554
▁external	-10.656
▁hind	-10.6568
▁classe	-10.6572
▁doom	-10.6591
▁crow	-10.6592
▁lodging	-10.6597
▁deposit	-10.6597
▁egg	-10.6598
cum	-10.6604
▁puff	-10.6604
▁persuad	-10.6605
▁examination	-10.6606
▁sew	-10.6619
▁tenderness	-10.6623
▁fired	-10.6631
▁heir	-10.6634
▁porthos	-10.6634
▁anchor	-10.6635
▁snapp	-10.6637
▁pat	-10.664
mc	-10.6659
rie	-10.6661
▁mars	-10.6662
▁japan	-10.6671
▁perpetual	-10.6677
cha	-10.6698
▁pope	-10.6702
▁scholar	-10.6709
▁scotland	-10.6709
▁wrath	-10.6709
▁wreck	-10.6709
▁suppress	-10.6709
▁exception	-10.6711
▁shouldn	-10.6714
▁driver	-10.6718
▁perfection	-10.6723
▁doorway	-10.673
▁blessed	-10.6743
▁apt	-10.6745
▁uneas	-10.6745
▁territor	-10.6746
▁tradition	-10.6746
▁eastern	-10.6746
▁section	-10.6749
ese	-10.6754
▁trot	-10.6755
▁touching	-10.6777
▁egypt	-10.6778
▁explor	-10.6784
▁scratch	-10.6784
▁solitar	-10.6784
▁glove	-10.6784
▁central	-10.6785
▁wax	-10.6788
▁india	-10.679
▁pal	-10.6796
▁fan	-10.6799
▁porter	-10.6805
▁starting	-10.6807
▁pointing	-10.6813
▁accompany	-10.6821
▁increasing	-10.6821
▁liberal	-10.6821
▁orange	-10.6822
▁commission	-10.6837
▁persist	-10.6842
▁hail	-10.6842
▁propose	-10.6843
▁reg	-10.6854
▁literature	-10.6859
▁withdraw	-10.6859
▁rever	-10.6863
▁moonlight	-10.6863
▁whither	-10.6864
▁lily	-10.6873
▁bak	-10.6878
cher	-10.688
▁pra	-10.688
▁whit	-10.6886
▁prepare	-10.6889
day	-10.6891
▁sink	-10.6892
▁reasonable	-10.6899
▁detective	-10.6899
▁enable	-10.6921
▁boats	-10.6931
▁dutch	-10.6936
▁francis	-10.6938
▁scent	-10.694
▁addition	-10.6967
▁napoleon	-10.6974
▁cardinal	-10.6974
▁fowl	-10.6974
▁blew	-10.6974
▁torment	-10.6978
▁mag	-10.6978
▁childhood	-10.698
titude	-10.6985
▁lament	-10.699
▁unit	-10.699
▁ray	-10.6994
▁chu	-10.6997
▁sober	-10.6999
▁hawk	-10.7
▁comrade	-10.7002
▁ann	-10.7009
▁engineer	-10.7017
miss	-10.7018
cast	-10.7023
▁weep	-10.7036
▁career	-10.7039
▁kid	-10.7042
▁legal	-10.7047
▁blank	-10.7051
▁folly	-10.7052
▁sobb	-10.7061
▁sca	-10.7065
woke	-10.7084
▁tap	-10.7089
▁enterprise	-10.709
shire	-10.7091
▁bedroom	-10.7092
▁hush	-10.7093
▁paw	-10.7098
▁politic	-10.7111
car	-10.7112
lock	-10.7113
▁barr	-10.7117
burg	-10.7117
▁scorn	-10.7126
▁contriv	-10.7127
▁outward	-10.7128
▁awkward	-10.7129
▁genuine	-10.7129
▁saturday	-10.7129
▁surviv	-10.7129
▁skirt	-10.7129
▁linen	-10.7132
▁affectionate	-10.7132
▁swor	-10.7135
▁fame	-10.7147
▁deceiv	-10.7157
▁foundation	-10.7159
▁mail	-10.7165
▁mutual	-10.7168
▁practis	-10.7168
▁eagle	-10.7168
▁income	-10.7168
▁improvement	-10.7169
▁anyway	-10.7187
▁curve	-10.7193
▁wiv	-10.7201
▁differ	-10.7205
▁sleeve	-10.7207
▁solitude	-10.7207
▁bind	-10.7207
▁favourite	-10.7208
▁plann	-10.7211
▁germany	-10.7218
▁outline	-10.7225
▁moss	-10.7225
▁growl	-10.7237
▁guid	-10.7237
▁raising	-10.724
▁detect	-10.7244
▁comprehend	-10.7246
▁serpent	-10.7246
▁summit	-10.7246
▁knot	-10.7246
▁copy	-10.7247
▁julie	-10.7247
▁axe	-10.7252
▁hideous	-10.7252
▁woe	-10.7252
▁necessari	-10.7259
▁wilt	-10.7272
▁drag	-10.7275
▁grat	-10.7275
ridge	-10.7276
hen	-10.7284
▁conflict	-10.7286
▁refuge	-10.7286
▁bundle	-10.7286
▁proposition	-10.7286
▁mask	-10.7289
▁wel	-10.73
▁slavery	-10.73
▁offering	-10.7301
▁alyosha	-10.7325
▁rescue	-10.7326
▁ladder	-10.7326
▁department	-10.7332
▁gai	-10.7337
▁vein	-10.734
▁invent	-10.7344
▁restrain	-10.735
▁desires	-10.7353
▁gal	-10.7355
▁shouting	-10.7362
▁warriors	-10.7362
▁gallop	-10.7366
▁scarlet	-10.7367
▁kitty	-10.7369
▁lace	-10.7372
▁views	-10.7381
uff	-10.7382
▁louise	-10.7382
▁una	-10.739
▁hare	-10.7397
▁congress	-10.7405
▁surrender	-10.7405
▁sustain	-10.7405
▁twilight	-10.7405
▁crop	-10.7406
▁ireland	-10.7406
▁funny	-10.7406
rung	-10.7408
▁respectful	-10.742
▁induc	-10.7421
▁preferr	-10.7426
▁bone	-10.7428
▁funeral	-10.7445
▁spain	-10.7445
▁crystal	-10.7445
▁lend	-10.7454
▁damn	-10.7464
▁prejudice	-10.7486
▁assistant	-10.7489
▁fashioned	-10.7501
▁authorit	-10.7506
▁inch	-10.7509
▁porch	-10.7519
▁defence	-10.7526
▁tumble	-10.7526
▁estimat	-10.7526
▁coloni	-10.7532
▁referr	-10.7537
▁phil	-10.7554
▁marguerite	-10.7567
▁miracle	-10.7567
▁pond	-10.7574
▁marks	-10.7575
▁unlike	-10.7583
▁fatigue	-10.7584
▁pulling	-10.7588
▁beggar	-10.759
▁fragment	-10.7608
▁natasha	-10.7608
▁roast	-10.7608
▁repose	-10.761
▁satisfactor	-10.7615
▁acting	-10.7619
▁proposal	-10.762
▁assent	-10.7627
▁masse	-10.763
▁sofa	-10.763
▁reliev	-10.7639
▁crossing	-10.7643
▁enchant	-10.7646
▁resource	-10.7649
▁population	-10.7649
▁securit	-10.7657
▁quoth	-10.7658
▁outer	-10.7658
▁bro	-10.7662
bble	-10.7673
▁formal	-10.7675
▁arouse	-10.7677
▁steamer	-10.7681
▁educat	-10.7684
▁contact	-10.769
▁crimson	-10.769
▁disorder	-10.769
▁division	-10.769
▁copper	-10.769
▁moderate	-10.769
▁cove	-10.7693
▁unw	-10.7693
▁swim	-10.7694
wick	-10.7718
▁wretch	-10.772
▁ox	-10.7725
▁emma	-10.7728
▁ripe	-10.7729
▁emphasi	-10.7731
▁chicken	-10.7731
▁overwhelm	-10.7731
▁shakespeare	-10.7731
▁muscle	-10.7732
▁tread	-10.7733
▁drops	-10.7734
▁today	-10.7739
▁claw	-10.7742
▁bible	-10.7749
▁cats	-10.7763
▁deer	-10.7771
▁admirabl	-10.7773
▁velvet	-10.7773
▁idiot	-10.7773
▁penny	-10.7775
▁martin	-10.7778
▁temptation	-10.778
▁barrel	-10.7782
▁ridge	-10.7785
long	-10.7789
▁persuade	-10.7806
▁rust	-10.7809
mate	-10.781
▁ev	-10.7811
▁annoy	-10.7813
▁musical	-10.7814
ju	-10.7816
▁sob	-10.7821
mmed	-10.7822
ola	-10.783
▁drum	-10.7831
▁pla	-10.7831
▁ends	-10.7854
▁concentrat	-10.7856
▁reject	-10.7856
▁distribut	-10.7856
▁motor	-10.7856
▁cordial	-10.7857
▁cling	-10.7862
▁trifle	-10.7865
▁pol	-10.7867
▁quit	-10.7871
▁ya	-10.7873
▁shad	-10.7885
▁ador	-10.7885
▁engine	-10.7893
▁combat	-10.7895
▁infant	-10.7895
▁confident	-10.7898
▁thief	-10.7898
▁survey	-10.7898
▁vital	-10.7899
▁jackson	-10.7899
▁assurance	-10.7899
▁railway	-10.79
▁crash	-10.7903
▁wick	-10.7906
▁recollection	-10.7906
▁moist	-10.7906
▁peaceful	-10.7911
▁breathing	-10.7921
▁rap	-10.7923
bro	-10.7926
▁cure	-10.7933
▁ruler	-10.7934
▁jacob	-10.794
▁clutch	-10.794
ibilit	-10.7941
▁blanket	-10.7941
▁nancy	-10.7941
▁cellar	-10.7946
▁sack	-10.7949
bar	-10.7961
▁riches	-10.7962
▁cub	-10.7962
▁hire	-10.7964
▁relate	-10.7975
▁convenient	-10.7983
▁screen	-10.7983
▁transport	-10.7983
▁coarse	-10.7983
▁bullet	-10.7983
▁determination	-10.7985
▁indignant	-10.7985
▁frost	-10.7989
▁conceive	-10.7995
▁partie	-10.7998
▁lands	-10.8002
▁worm	-10.8024
▁devotion	-10.8025
▁invisible	-10.8025
▁mixture	-10.8025
▁performance	-10.8031
▁shine	-10.8032
▁doth	-10.8046
▁succession	-10.8048
▁brig	-10.8061
▁pronounced	-10.8067
▁bargain	-10.8068
▁exquisite	-10.8068
▁tobacco	-10.8068
▁mould	-10.8068
▁loyal	-10.8069
▁moor	-10.807
▁minor	-10.8078
▁endur	-10.808
▁equ	-10.8082
▁emerg	-10.8085
▁stra	-10.8091
room	-10.8095
aries	-10.8098
▁acknowledge	-10.81
▁feathers	-10.8104
▁shan	-10.8106
took	-10.8109
▁attentive	-10.8111
▁dorothy	-10.8111
▁brute	-10.8111
▁goose	-10.8111
▁construct	-10.8114
▁establishment	-10.8119
▁issu	-10.8121
▁clothing	-10.8127
▁speaker	-10.8128
ograph	-10.8129
▁rider	-10.8141
▁daring	-10.8147
▁essence	-10.8154
▁borrow	-10.8154
▁decent	-10.8154
▁obscure	-10.8154
▁dismay	-10.8154
▁complaint	-10.8155
▁vow	-10.8161
▁charity	-10.8162
▁provide	-10.8172
▁robb	-10.8174
hold	-10.8184
▁fist	-10.8187
▁contented	-10.8191
▁blade	-10.8197
▁hum	-10.8197
▁pluck	-10.8197
▁undoubted	-10.8197
▁coffin	-10.8197
▁repent	-10.8199
▁stephen	-10.8199
▁sunset	-10.8201
▁peril	-10.8214
▁painting	-10.8221
▁majorit	-10.8226
▁desir	-10.8232
▁dishe	-10.8232
▁heav	-10.8236
▁inward	-10.8237
▁flee	-10.8238
▁holiday	-10.8241
qua	-10.8241
▁cotton	-10.8241
▁replac	-10.8241
▁economic	-10.8242
▁mechanical	-10.8251
itude	-10.8261
cho	-10.8264
▁curse	-10.8265
▁balance	-10.8265
▁boot	-10.8279
▁ridiculous	-10.8284
▁hesitation	-10.8284
▁saving	-10.8285
foot	-10.8285
▁sancho	-10.8285
▁bor	-10.8288
▁bald	-10.8289
▁miller	-10.83
▁songs	-10.8302
▁tool	-10.8309
▁lid	-10.8313
▁cape	-10.8316
fold	-10.8327
▁corpse	-10.8331
▁travelling	-10.8332
▁peak	-10.8334
▁brandon	-10.8336
▁procession	-10.8341
▁gre	-10.8357
▁inquire	-10.8365
▁correspond	-10.8371
▁despite	-10.8372
▁cherish	-10.8372
▁elde	-10.8373
▁wilson	-10.8373
▁edith	-10.8376
▁resistance	-10.8376
▁confession	-10.8391
▁vine	-10.8406
via	-10.8407
▁gang	-10.8412
▁cannon	-10.8416
▁apprehension	-10.8417
▁avenue	-10.8417
▁drake	-10.8417
▁tendenc	-10.8422
▁comrades	-10.8429
▁advised	-10.843
▁solicit	-10.846
▁inferior	-10.8461
▁staircase	-10.8461
▁congratulat	-10.8461
▁couch	-10.8461
▁carlyle	-10.8462
▁ham	-10.8468
▁july	-10.847
▁liver	-10.8482
▁wherefore	-10.8491
▁contemplat	-10.8499
▁eloquen	-10.8506
▁footstep	-10.8506
▁tomorrow	-10.8506
▁uncomfortabl	-10.8506
▁naught	-10.8506
▁justifi	-10.8506
▁throng	-10.8507
▁victor	-10.8509
▁ensu	-10.8521
▁handed	-10.8522
▁lawn	-10.8529
▁suppos	-10.8535
▁dispute	-10.8538
▁appreciat	-10.8541
▁indifference	-10.8551
▁reception	-10.8551
▁vegetable	-10.8551
▁imperfect	-10.8551
▁violet	-10.8551
▁residence	-10.8551
▁turkey	-10.8551
▁altar	-10.8551
▁sarah	-10.8552
▁jerk	-10.8553
▁magician	-10.8557
▁guardian	-10.8568
▁bron	-10.8577
cle	-10.8577
▁partial	-10.8578
where	-10.8579
app	-10.8582
▁breathe	-10.8583
▁carve	-10.8588
▁resign	-10.859
▁resolute	-10.8596
▁blossom	-10.8596
▁lantern	-10.8596
▁gravit	-10.8596
▁offence	-10.8596
▁dine	-10.8617
▁soften	-10.8623
▁accent	-10.8641
▁lecture	-10.8641
▁manufactur	-10.8641
▁trumpet	-10.8641
▁valjean	-10.8641
▁unwilling	-10.8641
▁fortnight	-10.8641
▁normal	-10.8641
▁creek	-10.8641
▁holland	-10.8643
▁annie	-10.8645
▁slice	-10.8647
▁beef	-10.865
▁allah	-10.865
▁coin	-10.8676
▁dumb	-10.8687
▁comparative	-10.8687
▁reviv	-10.8687
▁frederick	-10.8687
▁disagreeable	-10.8688
▁collection	-10.8696
▁arrange	-10.8707
▁prose	-10.8711
▁tan	-10.8718
▁tam	-10.8724
▁youngest	-10.8724
▁dew	-10.8728
▁import	-10.8729
▁defin	-10.8729
▁affirm	-10.8732
▁matthew	-10.8732
▁convert	-10.8732
▁hoping	-10.8732
▁brisk	-10.8733
▁literar	-10.8733
▁bunch	-10.8735
▁romantic	-10.8736
▁invention	-10.8739
▁indicate	-10.8743
▁rushing	-10.8749
acy	-10.8751
▁englishman	-10.8751
▁bend	-10.8757
▁wak	-10.8773
▁lee	-10.8776
▁cigar	-10.8778
▁mademoiselle	-10.8778
▁michael	-10.8778
▁facing	-10.8778
▁jones	-10.8778
▁dense	-10.8779
▁bred	-10.8793
▁lash	-10.8794
▁interior	-10.8812
▁passes	-10.8818
▁romance	-10.8819
▁introduce	-10.8822
▁devour	-10.8824
▁excellency	-10.8824
▁gossip	-10.8824
▁hammer	-10.8824
▁pencil	-10.8824
▁average	-10.8824
▁stagger	-10.8824
▁triumphant	-10.8827
burn	-10.883
▁bending	-10.8831
▁creation	-10.8837
▁thankful	-10.884
▁thorn	-10.8853
▁ku	-10.8868
▁involuntar	-10.887
▁occupy	-10.887
▁sprinkl	-10.887
▁stumbl	-10.887
▁application	-10.8871
▁model	-10.8882
▁captur	-10.8885
▁blu	-10.8886
sky	-10.8889
▁bodi	-10.8892
▁peg	-10.8893
▁pea	-10.8899
▁jam	-10.8899
ology	-10.8902
▁ascertain	-10.8917
▁corridor	-10.8917
▁delicious	-10.8917
▁universe	-10.8917
▁promot	-10.8917
▁shilling	-10.8917
▁contest	-10.8917
▁ashore	-10.8918
rate	-10.8921
▁administration	-10.8963
▁innocenc	-10.8963
▁rigid	-10.8963
▁adventures	-10.8982
▁moan	-10.8986
▁parish	-10.8987
▁slo	-10.8996
▁adorn	-10.9
▁anticipat	-10.9004
▁campaign	-10.901
▁journal	-10.901
▁landscape	-10.901
▁telegraph	-10.901
▁unjust	-10.901
▁wolve	-10.9011
▁flourish	-10.9014
berg	-10.9016
▁raw	-10.9023
▁ken	-10.9026
▁resid	-10.903
▁fishing	-10.9045
▁oppress	-10.9049
▁whistl	-10.9052
▁challenge	-10.9058
▁torrent	-10.9058
▁strick	-10.9058
▁hurl	-10.9059
dding	-10.9076
▁salv	-10.9078
▁cru	-10.9083
▁troubl	-10.9088
▁retire	-10.9091
▁translat	-10.9108
▁illness	-10.9122
▁sauce	-10.9124
▁brass	-10.9126
▁fran	-10.913
▁breathless	-10.9131
▁judg	-10.9134
▁hull	-10.9134
tte	-10.9135
▁submit	-10.9145
▁quixote	-10.9153
▁responsibilit	-10.9153
▁deaf	-10.9153
▁raft	-10.9153
▁glid	-10.9153
▁jimmy	-10.9153
▁niece	-10.9153
▁gap	-10.9165
tta	-10.9169
▁chatter	-10.9169
▁mansion	-10.9175
▁hood	-10.9176
▁ji	-10.9181
▁glacier	-10.92
▁envy	-10.92
▁boston	-10.9201
▁latin	-10.9201
▁fanny	-10.9202
▁richmond	-10.9203
▁demon	-10.9209
▁raggedy	-10.9212
▁awe	-10.9212
▁rosy	-10.9214
▁dat	-10.9214
▁angri	-10.9238
▁miner	-10.924
▁sixth	-10.9248
▁vulgar	-10.9249
▁maxim	-10.9249
▁solomon	-10.9249
▁stalk	-10.9249
▁spoon	-10.925
▁abuse	-10.9258
▁faster	-10.9264
▁tune	-10.9265
▁dwel	-10.927
▁natured	-10.9282
▁regulat	-10.9285
▁spark	-10.9288
▁convict	-10.9291
▁interpret	-10.9292
▁canoe	-10.9293
▁bur	-10.9293
▁reserve	-10.9295
oes	-10.9295
▁admiral	-10.9297
▁april	-10.9297
▁permanent	-10.9297
▁ribbon	-10.9297
▁temporar	-10.9297
▁neighborhood	-10.9298
▁impart	-10.9298
▁stroll	-10.9301
▁complexion	-10.9303
ero	-10.9305
▁employment	-10.9307
▁resembl	-10.9318
▁basin	-10.934
▁republic	-10.9342
▁immortal	-10.9345
▁penetrate	-10.9345
▁septemb	-10.9345
▁suspend	-10.9345
▁telephone	-10.9345
▁temperature	-10.9345
▁horrid	-10.9345
▁reconcil	-10.9345
▁spaniard	-10.9345
▁stove	-10.9345
▁oyster	-10.9346
▁johnny	-10.9347
▁release	-10.9348
▁tiger	-10.935
▁prudence	-10.9351
▁appointment	-10.9352
▁egyptian	-10.9352
▁procure	-10.9361
▁harp	-10.9364
▁mission	-10.9377
dor	-10.9387
▁gilbert	-10.9394
▁nephew	-10.9394
▁railroad	-10.9394
▁device	-10.9394
▁twinkl	-10.9394
▁collected	-10.9395
▁consol	-10.9397
▁patron	-10.9399
▁dante	-10.9402
arch	-10.9406
▁impose	-10.9406
▁wheat	-10.9411
▁compare	-10.9417
▁drawer	-10.9432
ino	-10.9433
▁elegant	-10.9443
▁hercule	-10.9443
▁link	-10.9444
▁wherein	-10.9446
▁roger	-10.9447
▁election	-10.9456
▁advise	-10.9468
▁dug	-10.9472
▁prop	-10.9472
say	-10.9473
▁brood	-10.9492
▁rational	-10.9492
▁turtle	-10.9492
▁stall	-10.9494
▁steward	-10.9497
▁burg	-10.9508
▁slipper	-10.9519
▁brac	-10.9528
▁statue	-10.9535
lea	-10.9537
▁wan	-10.9538
▁shower	-10.954
▁specimen	-10.9542
▁editor	-10.9542
▁whale	-10.9542
▁medical	-10.9543
▁balloon	-10.9544
▁searching	-10.9544
▁hal	-10.9551
▁mast	-10.9585
▁launcelot	-10.9592
▁errand	-10.9592
▁composition	-10.9592
▁discourse	-10.9592
▁shalt	-10.9593
▁jacket	-10.9593
▁grip	-10.9593
▁stake	-10.9595
▁conceiv	-10.96
istic	-10.9601
▁semi	-10.9608
▁pirates	-10.9625
▁squee	-10.9637
▁fulfill	-10.9639
▁tumult	-10.9642
▁corrupt	-10.9642
▁anguish	-10.9642
▁shaggy	-10.9642
▁gran	-10.9647
▁mob	-10.9647
▁restore	-10.9648
▁wink	-10.9654
▁assembly	-10.9656
▁beth	-10.9662
▁wool	-10.967
▁travell	-10.9677
▁terribl	-10.9682
▁upright	-10.9686
▁blast	-10.9687
▁timber	-10.9696
▁knel	-10.9696
▁rosa	-10.9696
▁hound	-10.9697
ita	-10.9702
▁gree	-10.9705
▁stirring	-10.9707
▁joyous	-10.971
j	-10.9714
▁steer	-10.9722
▁entr	-10.9733
▁prime	-10.9741
▁abstract	-10.9742
▁embroider	-10.9742
▁photograph	-10.9742
▁threshold	-10.9742
▁assign	-10.9742
▁pavement	-10.9743
▁limp	-10.9749
▁settlement	-10.9751
▁jail	-10.9752
▁instruct	-10.9752
▁jury	-10.9752
▁glowing	-10.9761
▁levin	-10.9764
▁bert	-10.9774
spar	-10.9774
▁flora	-10.9781
▁pursue	-10.9786
▁spin	-10.9788
▁crook	-10.9793
▁rascal	-10.9793
▁harris	-10.9794
▁simplicit	-10.9795
▁agitation	-10.9799
▁joyful	-10.9811
▁polic	-10.9811
▁eighth	-10.9812
▁ponder	-10.9831
▁hearti	-10.9833
▁pop	-10.9834
▁agitat	-10.9838
▁obstacle	-10.9844
▁slumber	-10.9844
▁combination	-10.9844
▁drain	-10.9844
▁wilderness	-10.9844
▁interfere	-10.985
▁fal	-10.9852
▁wail	-10.9854
▁fred	-10.9867
bri	-10.9868
fish	-10.987
▁thor	-10.989
▁believing	-10.9895
▁reckless	-10.9896
▁traged	-10.9896
▁friday	-10.9896
▁fawn	-10.9896
▁villain	-10.9899
▁clapp	-10.9901
▁pressing	-10.9913
▁tailor	-10.9921
oge	-10.9923
▁ki	-10.9924
▁butler	-10.9933
▁impatien	-10.9944
▁sledge	-10.9947
▁symptom	-10.9947
▁transform	-10.9947
▁ceiling	-10.9947
▁kennedy	-10.9947
▁slay	-10.9947
▁monday	-10.9948
▁plague	-10.9948
▁lemon	-10.995
▁canvas	-10.995
▁european	-10.9956
▁venus	-10.9957
▁carr	-10.9959
▁politeness	-10.9963
▁nat	-10.9965
▁effective	-10.9966
▁lor	-10.9967
▁prosperit	-10.998
ulation	-10.9987
▁fright	-10.999
▁inhabit	-10.9997
▁senator	-10.9999
▁swimming	-10.9999
▁barrier	-11
▁forbid	-11.0003
▁compassion	-11.0004
▁endless	-11.0009
▁cash	-11.0013
▁dropping	-11.0017
cla	-11.0018
▁speedi	-11.0036
▁kneel	-11.005
▁proclaim	-11.0051
▁wrinkl	-11.0051
▁overlook	-11.0051
▁adjust	-11.0051
▁mitya	-11.0051
▁enquir	-11.0051
▁comparison	-11.0051
▁foul	-11.0055
▁forgett	-11.0055
▁daint	-11.0058
▁guilt	-11.0064
▁flies	-11.0073
arian	-11.0081
▁route	-11.0091
▁disdain	-11.0103
▁perception	-11.0103
▁precaution	-11.0103
▁spectator	-11.0103
▁surprising	-11.0103
▁testimon	-11.0103
▁distract	-11.0103
▁tyrann	-11.0103
▁bonnet	-11.0103
▁jason	-11.0104
▁graham	-11.0104
▁vanit	-11.0114
▁lifting	-11.0122
▁wil	-11.0132
▁procur	-11.0141
▁unsee	-11.0143
▁profess	-11.0145
▁crest	-11.0146
▁confound	-11.0156
▁descent	-11.0156
▁globe	-11.0156
▁sketch	-11.0156
▁structure	-11.0156
▁ultimate	-11.0156
▁orchard	-11.0156
▁insect	-11.0156
▁amiable	-11.0157
▁narrative	-11.0157
▁inspector	-11.0158
▁troop	-11.0169
▁hurrying	-11.0176
lus	-11.0177
▁wont	-11.0179
drew	-11.0192
▁refer	-11.0195
▁greed	-11.0196
▁complex	-11.0203
▁chop	-11.0203
▁cushion	-11.0209
▁substitut	-11.0209
▁eminent	-11.0209
▁array	-11.0209
▁nightingale	-11.0209
▁waving	-11.0209
▁cosette	-11.0209
▁scott	-11.0209
▁banner	-11.021
▁bake	-11.0215
▁suck	-11.0218
ott	-11.0225
▁despise	-11.0245
▁pall	-11.0253
▁tim	-11.0255
▁independence	-11.0256
▁pinch	-11.0257
▁achiev	-11.0261
▁irregular	-11.0262
▁caution	-11.0262
▁extract	-11.0263
▁quitt	-11.0264
▁instinctive	-11.0267
▁dame	-11.0299
▁caress	-11.0313
▁suspicious	-11.0316
▁subtle	-11.0316
▁tho	-11.0329
uary	-11.0333
▁grind	-11.0333
▁nowhere	-11.0348
▁forbidd	-11.0367
▁appropriate	-11.0369
▁calculate	-11.0369
▁abode	-11.0369
▁thumb	-11.0369
▁twas	-11.037
▁providence	-11.037
▁morgan	-11.037
▁consume	-11.0371
▁slaughter	-11.0373
▁conclude	-11.0374
▁professional	-11.0389
gate	-11.0391
▁flowing	-11.0392
▁apolog	-11.0393
▁conspicuous	-11.0423
▁rebecca	-11.0423
▁sergeant	-11.0423
▁crouch	-11.0423
▁captive	-11.0423
▁cavern	-11.0423
▁apron	-11.0424
▁lordship	-11.0435
▁relieve	-11.0436
▁glittering	-11.0441
▁bite	-11.0451
▁stray	-11.0452
▁spy	-11.0454
▁ragged	-11.0466
▁discipline	-11.0478
▁glancing	-11.0478
▁pilgrim	-11.0478
▁universit	-11.0478
▁sullen	-11.0478
ground	-11.0479
▁drear	-11.0479
▁foam	-11.0481
▁highness	-11.0484
▁woke	-11.0486
▁cruelty	-11.0487
▁production	-11.0491
▁joint	-11.0517
▁commerc	-11.0531
▁prairie	-11.0532
▁reverence	-11.0532
▁trouser	-11.0532
▁choke	-11.0532
▁extra	-11.0535
▁undi	-11.0542
▁divide	-11.0547
▁critical	-11.0549
▁melod	-11.0551
▁stat	-11.0552
▁supp	-11.056
▁soup	-11.0575
▁elm	-11.0578
▁terrifi	-11.0583
fo	-11.0585
responsible	-11.0587
▁exclamation	-11.0587
▁parlour	-11.0587
▁phenomena	-11.0587
▁symbol	-11.0587
▁umbrella	-11.0587
▁diminish	-11.0587
▁stump	-11.0587
▁hypnoti	-11.0587
▁muscular	-11.0588
ek	-11.0589
▁rebel	-11.059
▁cough	-11.0591
▁swamp	-11.0592
▁whistle	-11.0594
▁deceive	-11.0602
▁associate	-11.0639
rick	-11.0641
▁remembrance	-11.0643
▁shaft	-11.0643
▁sheriff	-11.0643
▁extensive	-11.0643
▁combined	-11.0643
▁hugh	-11.0644
▁pleasing	-11.0644
▁thicket	-11.0645
▁turk	-11.0648
▁entertainment	-11.0649
▁glasse	-11.0654
▁maker	-11.0662
tercourse	-11.0662
▁sinking	-11.0674
▁gau	-11.0692
▁landlord	-11.0698
▁shrink	-11.0698
▁entitle	-11.0698
▁caesar	-11.0698
▁gall	-11.0698
▁debat	-11.07
loo	-11.0706
▁invest	-11.0706
▁prick	-11.0709
▁painter	-11.071
▁quiver	-11.0715
▁attribute	-11.0717
▁boxe	-11.072
▁induce	-11.0735
▁behave	-11.0745
▁statu	-11.0752
▁brutal	-11.0754
▁maggie	-11.0754
▁nautilus	-11.0754
▁sphere	-11.0754
▁commercial	-11.0755
▁parson	-11.0755
▁fitting	-11.0756
▁upset	-11.0764
▁adj	-11.0766
▁fogg	-11.0767
▁threatening	-11.0787
▁envelope	-11.079
▁filling	-11.0792
▁capture	-11.0795
chu	-11.08
▁situat	-11.0804
▁bother	-11.0809
▁brethren	-11.081
▁housekeeper	-11.081
▁davy	-11.081
▁marquis	-11.081
▁ardent	-11.081
▁constitute	-11.0812
▁interpos	-11.0813
▁mournful	-11.0815
▁lent	-11.0822
mouth	-11.0822
far	-11.0831
▁russia	-11.0834
ram	-11.0837
▁downward	-11.0841
mont	-11.0841
▁laura	-11.0845
▁kat	-11.0856
▁greeting	-11.0856
▁sailing	-11.0859
▁investigat	-11.086
▁britain	-11.0867
▁harbour	-11.0867
▁concert	-11.0867
▁slim	-11.0867
▁donkey	-11.0867
▁rak	-11.0868
▁damage	-11.0869
▁clover	-11.087
vin	-11.0888
▁fund	-11.0893
ji	-11.0895
▁aboard	-11.0896
▁blowing	-11.0902
▁discharge	-11.0902
▁drug	-11.0905
▁hinder	-11.0914
▁virgin	-11.0915
▁culture	-11.0923
▁julius	-11.0923
▁monstrous	-11.0923
▁paradise	-11.0923
▁invariabl	-11.0923
▁raoul	-11.0923
▁scold	-11.0923
▁remedy	-11.0923
▁split	-11.0924
▁decay	-11.0924
▁sunny	-11.0929
▁exertion	-11.0929
▁scro	-11.093
sight	-11.0942
▁mole	-11.0943
▁mare	-11.0964
▁shaken	-11.0964
▁refresh	-11.0979
▁assault	-11.0981
▁moscow	-11.0981
▁probabilit	-11.0981
▁december	-11.0981
▁wrist	-11.0981
▁literal	-11.0981
▁excessive	-11.0982
▁tightly	-11.0989
piece	-11.0994
▁declin	-11.0994
▁trim	-11.1012
▁excit	-11.1014
▁gib	-11.1019
▁rac	-11.1036
▁marian	-11.1036
▁tyrant	-11.1038
▁valentine	-11.1038
▁abraham	-11.1038
▁delicac	-11.1038
▁exalt	-11.1038
▁amusing	-11.1041
▁medium	-11.1041
▁banish	-11.1042
▁strait	-11.1042
▁closing	-11.1044
▁investigation	-11.1044
▁determine	-11.1049
▁haul	-11.1055
▁chuckle	-11.1057
chester	-11.1059
rum	-11.107
▁lung	-11.1075
▁sting	-11.1086
ida	-11.1091
▁artificial	-11.1096
▁swarm	-11.1096
▁detain	-11.1096
▁pledge	-11.1096
▁resemblance	-11.1098
▁darken	-11.11
▁chopp	-11.1102
▁strengthen	-11.1104
▁obligation	-11.1127
▁eh	-11.113
▁hostil	-11.1133
▁han	-11.115
▁tenth	-11.1154
▁patriot	-11.1154
▁defect	-11.1154
▁dismal	-11.1154
▁clung	-11.1155
▁breton	-11.1156
▁haught	-11.1157
▁mono	-11.1169
▁commissioner	-11.1188
▁deserved	-11.1195
▁fry	-11.1207
▁ignor	-11.1209
▁communicat	-11.121
▁amelia	-11.1213
▁justify	-11.1213
▁hearth	-11.1217
▁recit	-11.1222
▁chant	-11.1222
night	-11.1226
▁nun	-11.1227
master	-11.1237
▁team	-11.1247
▁gardener	-11.1267
▁elephant	-11.1271
▁incredibl	-11.1271
▁spargo	-11.1271
▁shrill	-11.1271
borough	-11.1271
▁text	-11.1271
▁rot	-11.1274
ik	-11.1279
▁enthusiastic	-11.1281
▁invad	-11.1281
▁mayor	-11.1288
▁endow	-11.1289
town	-11.129
▁yea	-11.1292
▁rout	-11.1294
▁resemble	-11.1303
▁howl	-11.1312
▁compass	-11.1325
▁exert	-11.1325
▁arc	-11.1327
▁cage	-11.1327
▁drama	-11.1329
▁disclos	-11.133
▁alexander	-11.133
▁extremit	-11.133
▁wrought	-11.133
▁regain	-11.133
▁pretti	-11.1331
▁sneer	-11.1331
▁sweat	-11.1331
▁formidabl	-11.1333
▁glare	-11.1335
▁rash	-11.1338
▁bigger	-11.1339
▁dipp	-11.1349
▁exceed	-11.1355
▁pac	-11.1356
▁louder	-11.1357
▁worri	-11.136
tail	-11.1361
▁marvel	-11.1361
▁sickness	-11.1377
▁abundant	-11.1378
▁threat	-11.1381
▁imitat	-11.1384
▁bough	-11.1384
▁respectabl	-11.1388
▁fier	-11.139
▁escort	-11.139
▁psmith	-11.139
▁resort	-11.139
▁outrage	-11.1391
▁inevitable	-11.1393
▁nigh	-11.1394
▁hom	-11.1397
▁subsid	-11.1401
▁sorrowful	-11.1402
▁onward	-11.1402
half	-11.1405
▁marsh	-11.141
▁reluctant	-11.1415
▁declaration	-11.142
▁childish	-11.1433
▁shar	-11.1438
▁ambassador	-11.145
▁remorse	-11.145
▁reserved	-11.1454
▁recognition	-11.1455
▁consolation	-11.1456
▁create	-11.1464
▁follower	-11.1469
▁revolver	-11.1477
▁beau	-11.1486
▁alleg	-11.1487
▁gale	-11.149
comb	-11.1493
▁confront	-11.151
▁gigantic	-11.151
▁october	-11.151
▁slew	-11.151
▁bulk	-11.151
▁flank	-11.151
▁illuminat	-11.151
▁repuls	-11.151
▁ellen	-11.151
▁warrior	-11.1515
dolph	-11.1517
▁pomp	-11.1518
lves	-11.1524
▁film	-11.1532
▁grinn	-11.1537
▁matur	-11.1538
▁dora	-11.1547
▁clara	-11.1567
▁cavalry	-11.1571
▁eleanor	-11.1571
▁exclusive	-11.1571
▁perfume	-11.1571
▁liquid	-11.1571
▁federal	-11.1571
▁workmen	-11.1572
▁bury	-11.1581
▁sandy	-11.1582
▁oven	-11.1585
▁attraction	-11.1588
▁tur	-11.1601
▁pon	-11.1601
▁pill	-11.1605
▁perplex	-11.1624
▁involv	-11.1628
▁releas	-11.1629
▁perce	-11.163
▁cluster	-11.1632
▁significant	-11.1632
▁waistcoat	-11.1632
▁stool	-11.1632
▁martha	-11.1632
▁travers	-11.1632
▁dictat	-11.1633
▁pillar	-11.1641
▁lime	-11.1643
▁unworth	-11.1647
ular	-11.1652
▁approve	-11.1669
▁studio	-11.1674
ware	-11.1685
▁rattl	-11.1686
▁accidental	-11.169
▁enclos	-11.1692
▁skilful	-11.1693
▁attorney	-11.1693
▁droop	-11.1693
▁habitual	-11.1693
▁shelf	-11.1694
▁pudding	-11.1694
▁interven	-11.1694
▁protestant	-11.1698
▁betty	-11.1699
▁potent	-11.17
▁pump	-11.17
▁durham	-11.1704
▁assertion	-11.1708
▁harness	-11.1713
▁crumb	-11.1713
back	-11.1718
▁firing	-11.1723
▁solv	-11.1743
▁illustrat	-11.1748
▁purchas	-11.1751
▁conjecture	-11.1755
▁fantastic	-11.1755
▁document	-11.1755
▁gulf	-11.1755
▁warrant	-11.1755
▁goddess	-11.1755
▁costume	-11.1755
▁bridle	-11.1755
▁prolong	-11.1756
▁grape	-11.1757
▁adher	-11.1758
▁owl	-11.1769
▁pacific	-11.1771
▁oars	-11.1772
▁agreement	-11.1774
▁prim	-11.1776
bridge	-11.1787
▁suffice	-11.1788
▁treasur	-11.179
▁commun	-11.1805
▁decorat	-11.1811
▁california	-11.1817
▁degrad	-11.1817
▁eustace	-11.1817
▁plough	-11.1817
▁squirrel	-11.1817
▁uncommon	-11.1817
▁vault	-11.1817
▁marvellous	-11.1818
▁shrugg	-11.1818
▁groom	-11.1821
▁tire	-11.1827
▁democratic	-11.1829
▁lowest	-11.183
▁drunken	-11.1834
▁woo	-11.1836
position	-11.1851
▁admiring	-11.1879
▁comprehensi	-11.1879
▁corporal	-11.1879
▁refrain	-11.1879
▁unnecessar	-11.1879
▁shrewd	-11.1879
▁pattern	-11.188
▁remainder	-11.1882
▁milton	-11.1884
▁acre	-11.1884
▁behav	-11.1888
▁appreciate	-11.1893
▁nora	-11.1904
▁enabl	-11.1932
▁banker	-11.1935
▁tempest	-11.1942
▁monument	-11.1942
▁loung	-11.1942
▁siege	-11.1942
dignified	-11.1943
▁accurate	-11.1943
▁raven	-11.1945
▁veri	-11.1945
▁ivan	-11.1948
▁attractive	-11.1948
▁pirate	-11.1965
▁basi	-11.1971
gone	-11.1975
▁whipp	-11.1984
▁pul	-11.1987
▁propriet	-11.1997
▁assassin	-11.2006
▁inflict	-11.2006
▁launch	-11.2006
▁pilot	-11.2006
▁idol	-11.2007
▁desirable	-11.2012
▁rue	-11.2014
gram	-11.203
▁unb	-11.2038
▁mute	-11.2038
▁excess	-11.2068
▁desolate	-11.2069
▁liquor	-11.2069
▁scarecrow	-11.2069
▁skull	-11.2069
▁sublime	-11.2069
▁ticket	-11.2069
▁ancestor	-11.2069
▁serene	-11.207
▁righteous	-11.207
▁bluff	-11.2071
▁blake	-11.2074
▁recess	-11.2075
▁acquire	-11.2086
justice	-11.2089
▁traveler	-11.2093
▁pulse	-11.2093
illa	-11.2106
▁trifl	-11.2121
▁convention	-11.2129
▁casual	-11.2133
▁charlotte	-11.2133
▁circular	-11.2133
▁pinocchio	-11.2133
▁priscilla	-11.2133
▁thieve	-11.2133
▁trout	-11.2133
▁occurrence	-11.2133
▁athenian	-11.2133
▁stifl	-11.2134
▁legend	-11.2134
▁incapab	-11.2134
▁nobil	-11.2134
▁fertil	-11.2135
▁frantic	-11.2135
▁tube	-11.2137
▁involve	-11.2138
▁throb	-11.2153
▁crust	-11.2157
hand	-11.2159
▁presume	-11.216
▁cask	-11.2169
▁quart	-11.2171
▁favorabl	-11.2189
▁bang	-11.2191
▁interrupt	-11.2192
▁estralla	-11.2198
▁manuscript	-11.2198
▁response	-11.2198
▁scandal	-11.2198
▁hoarse	-11.2198
▁tangle	-11.2198
▁patsy	-11.2202
▁bleed	-11.2205
▁utili	-11.2206
▁background	-11.2208
▁tint	-11.2209
▁armor	-11.2212
▁locat	-11.2218
▁frenchman	-11.2219
▁shave	-11.2229
▁psycholog	-11.2233
▁pang	-11.2238
▁isolat	-11.2244
▁customer	-11.2249
▁convent	-11.2257
▁reverse	-11.226
▁accumulat	-11.2263
▁revolt	-11.2263
▁scotch	-11.2263
▁mathematic	-11.2263
▁philadelphia	-11.2263
▁smash	-11.2263
▁subsequent	-11.2263
▁damsel	-11.2263
▁moses	-11.2269
▁soap	-11.2276
▁mai	-11.2276
▁busi	-11.2291
▁personage	-11.2299
alem	-11.2308
▁underne	-11.231
▁decline	-11.2312
▁cathedral	-11.2328
▁despatch	-11.2328
▁embarrassment	-11.2328
▁eternity	-11.2328
▁january	-11.2328
▁jimmie	-11.2328
▁jerry	-11.2328
▁fisherman	-11.2328
▁jude	-11.2329
▁ample	-11.2332
▁champion	-11.2333
▁parallel	-11.2339
▁separation	-11.234
▁aye	-11.2342
break	-11.2349
▁butcher	-11.2356
▁highway	-11.2363
berry	-11.2367
▁allud	-11.2382
▁contradict	-11.2388
▁depress	-11.2388
▁communicate	-11.2389
▁ledge	-11.2389
▁guy	-11.2391
▁jasper	-11.2394
▁opponent	-11.2394
▁primitive	-11.2394
▁significance	-11.2394
▁substantial	-11.2394
▁commend	-11.2394
▁draught	-11.2394
▁dispers	-11.2394
▁digging	-11.2394
▁dunbar	-11.2394
▁commit	-11.2405
▁rattle	-11.2406
▁indication	-11.2406
▁exile	-11.242
maker	-11.2421
▁startling	-11.2422
▁fir	-11.2422
▁argue	-11.2434
▁bin	-11.2446
▁vary	-11.2446
▁advertis	-11.2459
▁adapt	-11.246
▁imperial	-11.246
▁juice	-11.246
▁calamit	-11.246
▁criticism	-11.2461
▁violat	-11.2462
▁republican	-11.2465
▁aveng	-11.2471
▁nursery	-11.2474
bru	-11.2511
▁undo	-11.2524
▁inherit	-11.2525
▁smot	-11.2526
▁chateau	-11.2527
▁phoenix	-11.2527
▁prudent	-11.2527
▁solution	-11.2527
▁villefort	-11.2527
▁relax	-11.2527
▁geograph	-11.2527
▁quaint	-11.2527
▁snor	-11.2527
▁gambl	-11.2527
▁cabinet	-11.2528
▁clergyman	-11.2529
▁reaction	-11.2529
▁falter	-11.253
▁febr	-11.2532
▁swam	-11.2533
▁heroic	-11.2542
▁access	-11.255
agne	-11.2556
▁brandy	-11.2583
▁marie	-11.259
▁strap	-11.2593
▁plunder	-11.2594
▁prohibit	-11.2594
▁distrust	-11.2594
▁generosit	-11.2594
▁voluntar	-11.2594
▁parlor	-11.2594
▁detach	-11.2594
▁navigat	-11.2595
▁introduction	-11.2596
▁horseback	-11.2597
▁coachman	-11.2599
▁scant	-11.2604
▁policeman	-11.2605
▁bre	-11.2609
▁invite	-11.2611
▁pasture	-11.2616
▁trapp	-11.2618
▁tenant	-11.2626
think	-11.2635
▁manager	-11.2643
▁discourage	-11.2662
▁enlighten	-11.2662
▁obstinate	-11.2662
▁agricultur	-11.2662
▁rejoicing	-11.2662
▁vehicle	-11.2662
▁illusion	-11.2662
▁anthea	-11.2662
▁martian	-11.2662
▁meek	-11.2662
▁sermon	-11.2663
▁gregg	-11.2663
▁rack	-11.2667
▁mike	-11.2669
▁acute	-11.2671
ople	-11.2681
▁haw	-11.2694
▁unhe	-11.2695
rai	-11.2697
▁willow	-11.2698
▁whisk	-11.2702
▁implie	-11.2711
▁stag	-11.2723
▁academ	-11.273
▁suspens	-11.273
▁pok	-11.273
▁internal	-11.273
▁vibrat	-11.273
▁cigarette	-11.273
▁kettle	-11.273
▁incense	-11.2731
▁trott	-11.2733
▁tooth	-11.2734
▁attachment	-11.2738
▁dependent	-11.2738
▁aught	-11.2741
▁lance	-11.2746
▁hump	-11.2753
▁plank	-11.2757
▁spared	-11.2758
▁discern	-11.2776
▁apologi	-11.2783
▁lame	-11.2791
▁elevat	-11.2792
▁incessant	-11.2798
▁vexed	-11.2798
▁parcel	-11.2798
▁glen	-11.2798
▁granite	-11.2799
▁picturesque	-11.2801
suitable	-11.2802
▁mexican	-11.2803
▁excite	-11.2808
▁acid	-11.2811
cular	-11.2812
▁abundan	-11.2812
▁token	-11.2812
▁tolerabl	-11.2838
▁gravel	-11.285
▁dome	-11.2861
▁embark	-11.2867
▁atlantic	-11.2867
▁loaf	-11.2867
▁martyr	-11.2867
▁terrace	-11.2867
▁surgeon	-11.2867
▁senate	-11.2867
▁contemptuous	-11.2868
▁courtesy	-11.2868
▁cyril	-11.2869
▁hencefor	-11.2869
▁speck	-11.287
▁potatoe	-11.287
aire	-11.2873
▁abyss	-11.2874
▁frock	-11.2877
▁hopp	-11.2881
▁surg	-11.2897
▁coil	-11.29
▁tapp	-11.29
cat	-11.2928
▁bug	-11.2929
▁afflict	-11.293
▁architectur	-11.2931
▁administer	-11.2936
▁apprehend	-11.2936
▁elaborate	-11.2936
▁eyebrow	-11.2936
▁intelligibl	-11.2936
▁splash	-11.2936
▁subdued	-11.2936
▁dexter	-11.2936
▁dominion	-11.2936
▁conseil	-11.2936
▁tragic	-11.2937
▁bobby	-11.294
▁tact	-11.2949
▁additional	-11.295
▁irre	-11.2961
coming	-11.2972
▁eric	-11.2978
rina	-11.2983
▁quivering	-11.2989
▁dolly	-11.2991
▁whisker	-11.2995
▁comfortabl	-11.3001
▁bachelor	-11.3006
▁defense	-11.3006
▁excursion	-11.3006
▁vacant	-11.3006
▁gratify	-11.3006
▁screw	-11.3006
▁sympathetic	-11.3006
▁ounce	-11.3006
▁yawn	-11.3007
▁identit	-11.3008
▁agnes	-11.3008
▁customar	-11.3013
▁proprietor	-11.3016
▁hue	-11.3016
▁afore	-11.3024
▁bubbl	-11.3026
▁lick	-11.3026
▁restraint	-11.3034
▁gross	-11.3039
▁marshal	-11.3046
▁radiant	-11.3048
bert	-11.3053
ouquet	-11.306
▁climate	-11.3077
▁phenomenon	-11.3077
▁prominent	-11.3077
▁leslie	-11.3077
▁shatter	-11.3077
▁bliss	-11.3077
▁jerus	-11.3077
▁aramis	-11.3077
▁confer	-11.3077
▁contend	-11.3077
▁israel	-11.3077
▁keith	-11.3078
▁envi	-11.3082
▁plantation	-11.3111
▁shallow	-11.3112
▁pont	-11.3123
▁artistic	-11.3137
▁associat	-11.3146
▁harbor	-11.3148
▁hebrew	-11.3148
▁provoke	-11.3148
▁surpass	-11.3148
▁chariot	-11.3148
▁temperament	-11.3148
▁ninth	-11.3148
▁liking	-11.3148
▁pagan	-11.3149
▁falsehood	-11.315
▁creak	-11.315
▁stew	-11.3151
▁kitten	-11.3154
▁loom	-11.3155
ball	-11.3158
▁construction	-11.3158
▁submitt	-11.3159
▁alert	-11.316
▁youthful	-11.3169
▁archer	-11.3195
▁prior	-11.3208
▁yer	-11.3215
▁passive	-11.3218
▁chorus	-11.3219
▁hymn	-11.3219
▁undertaking	-11.3219
▁correspondence	-11.3219
▁mirth	-11.3219
▁particle	-11.322
▁resentment	-11.3222
▁edison	-11.3222
▁greas	-11.3223
▁scout	-11.3223
▁attire	-11.3225
▁intensit	-11.3228
ological	-11.323
ternation	-11.3231
▁maga	-11.3245
▁vot	-11.3277
▁apparatus	-11.3291
▁gospel	-11.3291
▁review	-11.3291
▁flicker	-11.3291
▁dixon	-11.3291
▁guinea	-11.3291
▁constance	-11.3291
▁nourish	-11.3291
▁drap	-11.3291
▁overtake	-11.3291
▁revelation	-11.3295
▁encouragement	-11.3297
▁illustration	-11.3298
▁gaunt	-11.3299
▁curate	-11.33
▁loath	-11.3306
▁wig	-11.3314
▁humbl	-11.3316
▁reel	-11.3317
▁maria	-11.333
▁dam	-11.3337
▁terminat	-11.3342
ollen	-11.3349
discreet	-11.3364
▁aladdin	-11.3364
▁chicago	-11.3364
▁disciple	-11.3364
▁garrison	-11.3364
▁hamilton	-11.3364
▁tulliver	-11.3364
▁chancellor	-11.3364
▁dagger	-11.3364
▁proverb	-11.3364
▁enforc	-11.3364
▁formation	-11.3365
▁parker	-11.3369
▁traitor	-11.337
▁chapel	-11.337
▁pala	-11.3378
▁chine	-11.3381
▁foresee	-11.3389
▁fashionable	-11.3391
▁argu	-11.3391
water	-11.34
▁bitterness	-11.3417
▁measur	-11.342
mini	-11.3421
▁speculat	-11.3431
▁confide	-11.3435
▁yu	-11.3436
▁accommodat	-11.3437
▁chauvelin	-11.3437
▁expert	-11.3437
▁glimmer	-11.3437
▁streak	-11.3437
▁volunteer	-11.3437
▁dissolv	-11.3437
▁jungle	-11.3437
▁sunrise	-11.3437
▁defiance	-11.3438
▁homeward	-11.3454
▁mantle	-11.3459
▁kil	-11.3475
▁glitter	-11.3486
midst	-11.3486
born	-11.3487
▁berth	-11.3502
▁mudd	-11.3502
▁quest	-11.3504
▁felicity	-11.351
▁irritate	-11.351
▁legislature	-11.351
▁leonora	-11.351
▁pitiful	-11.351
▁intimac	-11.351
▁colony	-11.351
▁unkind	-11.351
▁subsist	-11.351
▁empti	-11.3511
▁complicate	-11.3511
▁fiddle	-11.3511
▁persever	-11.3512
▁persistent	-11.3514
▁disturbance	-11.3514
▁tiding	-11.3515
▁handful	-11.3516
▁speculation	-11.3517
▁crab	-11.3518
▁courtier	-11.352
▁armour	-11.352
▁plato	-11.3534
▁missionar	-11.3541
▁shawl	-11.3555
▁chuck	-11.3564
▁resent	-11.3583
▁carpenter	-11.3584
▁expand	-11.3584
▁fundamental	-11.3584
▁innumerabl	-11.3584
▁harvest	-11.3584
▁overflow	-11.3584
▁courteous	-11.3584
▁lark	-11.3599
▁kr	-11.36
▁stripp	-11.36
▁pious	-11.3612
▁hart	-11.3614
▁grin	-11.3616
▁sentimental	-11.362
▁era	-11.3623
▁camel	-11.3626
▁stru	-11.3633
▁feminine	-11.3659
▁scramble	-11.3659
▁twentieth	-11.3659
▁facilit	-11.3659
▁conquest	-11.3659
▁ghastl	-11.3659
▁daniel	-11.3659
▁isabella	-11.3664
▁vest	-11.3665
▁forsake	-11.3666
▁odor	-11.3669
▁trod	-11.367
▁ladyship	-11.3681
▁reporter	-11.3689
new	-11.3692
uk	-11.3698
▁butterfly	-11.3698
pose	-11.3706
▁perceptibl	-11.3734
▁rainbow	-11.3734
▁adjoin	-11.3734
▁decree	-11.3734
▁strew	-11.3734
▁behaviour	-11.3735
▁gorgeous	-11.3736
▁topic	-11.3741
▁tranquil	-11.3746
▁babylon	-11.375
▁copie	-11.3758
itch	-11.3758
▁foli	-11.3764
▁toast	-11.3778
▁pharaoh	-11.381
▁refined	-11.381
▁unnatural	-11.381
▁invalid	-11.381
▁alliance	-11.3811
▁stem	-11.3811
▁repress	-11.3811
▁dramatic	-11.3811
▁trench	-11.3812
▁fulfil	-11.3814
▁venerabl	-11.3816
▁chatt	-11.3817
▁ditch	-11.382
▁audibl	-11.382
▁boss	-11.3824
▁irresistible	-11.383
▁gem	-11.3838
▁inventor	-11.3843
▁clair	-11.3849
▁watchful	-11.3853
▁sara	-11.3857
▁knitt	-11.3862
▁cursed	-11.3877
▁snap	-11.388
▁hypothes	-11.3886
▁advocat	-11.3886
▁samuel	-11.3886
▁scoundrel	-11.3886
▁suffrage	-11.3886
▁barricade	-11.3886
▁circulat	-11.3886
▁distort	-11.3886
▁deceas	-11.3886
▁strive	-11.3886
▁bruce	-11.3886
▁wendy	-11.3886
▁pia	-11.3887
▁cradle	-11.3887
▁bomb	-11.3887
▁blunt	-11.3887
▁darcy	-11.3888
▁menace	-11.3888
▁foster	-11.3889
▁spake	-11.3889
▁ginger	-11.3889
▁infantry	-11.3892
▁hark	-11.3892
▁augustine	-11.3892
▁uneasiness	-11.3893
▁lump	-11.3895
▁necessit	-11.3896
▁bump	-11.3896
▁sympathi	-11.39
▁morn	-11.3932
▁workman	-11.3936
▁lac	-11.3942
▁auto	-11.3957
▁ambitious	-11.3963
▁confederate	-11.3963
▁splendor	-11.3963
▁tuesday	-11.3963
▁virtuous	-11.3963
▁emphatic	-11.3963
▁enlarg	-11.3963
▁buffalo	-11.3963
▁sexual	-11.3963
▁energetic	-11.3963
▁luncheon	-11.3963
▁humming	-11.3963
▁flint	-11.3963
▁beckon	-11.3964
▁grunt	-11.3965
▁mabel	-11.3967
▁finer	-11.3969
▁cheat	-11.3969
▁interpretation	-11.3971
▁cargo	-11.3978
hurst	-11.3979
▁harmless	-11.3984
▁oat	-11.3986
▁exchang	-11.3987
itious	-11.3993
▁popp	-11.4001
▁controll	-11.401
▁fuss	-11.4015
▁slop	-11.4028
▁hopeful	-11.4037
▁multipli	-11.4041
▁negative	-11.4041
▁petition	-11.4041
▁compact	-11.4041
▁ingenious	-11.4041
▁petersburg	-11.4041
▁vehemen	-11.4041
▁persian	-11.4042
▁boom	-11.4046
▁barbara	-11.4046
▁imitation	-11.4049
▁armie	-11.405
▁massive	-11.4052
▁hyp	-11.4054
▁buff	-11.4054
▁plump	-11.4055
▁carol	-11.4057
▁logical	-11.406
▁hardship	-11.4066
lip	-11.4091
action	-11.4113
▁displeas	-11.4118
▁calculation	-11.4119
▁circuit	-11.4119
▁conform	-11.4119
▁exclud	-11.4119
▁extinguish	-11.4119
▁intolerabl	-11.4125
▁accomplishment	-11.413
▁sab	-11.4131
▁hospitality	-11.4134
▁stud	-11.4135
dale	-11.4146
▁sage	-11.4154
▁fringe	-11.4155
▁continuous	-11.4159
▁levi	-11.4196
▁marcella	-11.4197
▁indulgence	-11.4197
▁dissipat	-11.4197
▁animated	-11.4198
▁courtyard	-11.4198
▁patent	-11.4201
▁chart	-11.4204
▁torch	-11.4205
▁fren	-11.4211
▁successive	-11.4212
▁advis	-11.4213
▁panic	-11.4213
▁worshipp	-11.4217
▁tub	-11.4231
▁dean	-11.4237
▁hatch	-11.4242
▁attribut	-11.425
▁connect	-11.425
▁presid	-11.4257
twixt	-11.4277
▁admission	-11.4277
▁fireplace	-11.4277
▁fugitive	-11.4277
▁wednesday	-11.4277
▁apostle	-11.4277
▁helmet	-11.4277
▁register	-11.4277
▁sinister	-11.4277
▁museum	-11.4277
▁clums	-11.4277
▁expir	-11.4277
▁allusion	-11.4278
▁tommy	-11.4278
▁exceptional	-11.4278
▁esther	-11.428
▁legg	-11.4281
▁brim	-11.4284
▁alien	-11.4284
▁rul	-11.4292
▁stimulat	-11.4308
ima	-11.4309
▁specific	-11.4318
mination	-11.432
▁beech	-11.432
▁efficient	-11.4323
poli	-11.4327
▁critic	-11.4335
▁ivor	-11.4338
▁astronom	-11.4357
▁definition	-11.4357
▁dismount	-11.4357
▁simultaneous	-11.4357
▁twig	-11.4357
▁orphan	-11.4357
▁champ	-11.4359
▁wagg	-11.4363
▁primar	-11.4363
▁transferr	-11.4367
▁inspiration	-11.4371
▁exhibition	-11.4374
▁tract	-11.4378
rising	-11.4382
woman	-11.4393
▁dodg	-11.4396
down	-11.44
▁spinn	-11.4429
▁earthquake	-11.4437
▁embarrassed	-11.4437
▁expensive	-11.4437
▁exploit	-11.4437
▁higgins	-11.4437
▁unluck	-11.4437
▁hesitating	-11.4437
▁overpower	-11.4437
▁snuff	-11.4437
▁watson	-11.4437
▁wondrous	-11.4437
▁conceit	-11.4437
▁session	-11.4437
▁divert	-11.4438
aternal	-11.4439
▁cupboard	-11.4439
▁westward	-11.4441
▁analysi	-11.4442
▁demonstration	-11.4443
▁feverish	-11.4443
▁contemplation	-11.4449
▁kindred	-11.4451
▁nurs	-11.4452
▁swan	-11.4453
▁andrea	-11.4453
▁kara	-11.4455
▁gill	-11.4458
▁alley	-11.4474
▁jug	-11.4491
▁diploma	-11.4519
▁discontent	-11.4519
▁lanyard	-11.4519
▁pencroft	-11.4519
▁stammer	-11.4519
▁transparent	-11.4519
▁vexation	-11.4519
▁disaster	-11.4519
▁intrud	-11.4519
▁predict	-11.4519
▁saxon	-11.4519
▁furnace	-11.4519
▁necklace	-11.4519
▁annual	-11.4519
▁margin	-11.4519
▁celia	-11.4519
▁winchester	-11.452
▁plaster	-11.452
▁vicar	-11.4521
▁punch	-11.4523
▁elevation	-11.4526
▁percy	-11.4528
▁perplexit	-11.4528
▁stealth	-11.4529
▁knit	-11.4544
▁hack	-11.4549
bird	-11.4557
much	-11.4558
▁brighten	-11.4563
pool	-11.4567
▁wu	-11.4573
▁cable	-11.4577
▁fret	-11.4584
▁historical	-11.4601
▁majestic	-11.4601
▁skeleton	-11.4601
▁verloc	-11.4601
▁divorce	-11.4601
▁wreath	-11.4601
▁tavern	-11.4601
▁impuden	-11.4601
▁gable	-11.4601
▁governess	-11.4602
▁marvelous	-11.4604
▁lumber	-11.4605
▁formula	-11.4621
▁despis	-11.4628
▁pap	-11.4631
▁evan	-11.4637
▁signor	-11.4679
▁biscuit	-11.4683
▁consumption	-11.4683
▁henrietta	-11.4683
▁bruis	-11.4683
▁candidate	-11.4685
▁winning	-11.4685
▁packet	-11.4685
▁devis	-11.4686
▁mysterie	-11.4691
▁oxen	-11.4699
▁feat	-11.4699
▁fearless	-11.4708
cloth	-11.4722
▁jove	-11.4725
▁sap	-11.4725
▁bessy	-11.4734
▁weaken	-11.4743
▁applause	-11.4767
▁gabriel	-11.4767
▁languid	-11.4767
▁scripture	-11.4767
▁striving	-11.4767
▁superstition	-11.4767
▁telegram	-11.4767
▁ecclesiastic	-11.4767
▁fiend	-11.4767
▁monaster	-11.4767
▁gratification	-11.4768
▁spider	-11.4768
▁jenk	-11.4775
▁crisp	-11.4775
▁barren	-11.4787
odious	-11.4789
▁loan	-11.4807
▁spec	-11.4818
strode	-11.4819
▁chim	-11.4831
▁demonstrat	-11.4844
▁constrain	-11.4851
▁everlasting	-11.4851
▁fiction	-11.4851
▁prostrate	-11.4851
▁sniff	-11.4851
▁socrates	-11.4851
▁tilney	-11.4851
▁conference	-11.4851
▁gild	-11.4851
▁oxford	-11.4852
▁confidential	-11.4852
▁penalt	-11.4853
▁clement	-11.4854
▁slap	-11.4855
▁hermit	-11.4856
▁chew	-11.4861
▁relic	-11.4865
ddling	-11.4878
▁marine	-11.4882
▁thorpe	-11.4889
▁clark	-11.4896
▁almighty	-11.4935
▁decisive	-11.4935
▁precipice	-11.4935
▁restaurant	-11.4935
▁tablespoonful	-11.4935
▁ravine	-11.4935
▁muffl	-11.4936
▁otto	-11.4936
▁otter	-11.4936
▁veni	-11.4938
▁lurk	-11.494
▁cruis	-11.4941
▁comte	-11.4942
▁hover	-11.4957
▁pear	-11.496
▁fain	-11.5009
▁clergy	-11.5018
▁dispatch	-11.5021
▁freckle	-11.5021
▁nostril	-11.5021
▁tunnel	-11.5021
▁beseech	-11.5021
▁harold	-11.5021
▁terrier	-11.5021
▁wallace	-11.5021
▁exercis	-11.5022
▁superintendent	-11.5022
▁saloon	-11.5022
▁industrial	-11.5023
ampton	-11.5023
▁annoyance	-11.5025
▁trimm	-11.5043
▁shutter	-11.5045
▁favourabl	-11.5051
▁victoria	-11.5058
▁cork	-11.5088
▁bog	-11.5099
▁trader	-11.5103
▁imprison	-11.5104
▁economy	-11.5107
▁hereafter	-11.5107
▁mammy	-11.5107
▁reappear	-11.5107
▁scruple	-11.5107
▁signature	-11.5107
▁dinsmore	-11.5107
▁outlaw	-11.5107
▁dispens	-11.5107
▁click	-11.5108
▁switch	-11.5108
▁interruption	-11.5115
▁whatso	-11.5117
▁calf	-11.5118
▁paddl	-11.5121
▁platt	-11.5122
▁utterance	-11.5129
▁respective	-11.5135
▁hobb	-11.5175
▁gull	-11.5188
▁indefinite	-11.5194
▁commonplace	-11.5194
▁disadvantage	-11.5194
▁eccentric	-11.5194
▁inflam	-11.5194
▁banquet	-11.5194
▁sentinel	-11.5194
▁coroner	-11.5194
▁pigeon	-11.5194
▁strand	-11.5194
ovitch	-11.5195
▁birthday	-11.5195
▁ascent	-11.5195
▁pronounc	-11.5197
▁hostess	-11.5197
▁bacon	-11.5197
▁rustling	-11.5198
▁canyon	-11.52
▁duel	-11.52
▁placid	-11.52
▁fuel	-11.5204
▁athos	-11.5209
▁fig	-11.5222
▁coral	-11.5243
▁experienc	-11.5263
▁discretion	-11.5282
▁expedient	-11.5282
▁mississippi	-11.5282
▁prophec	-11.5282
▁rostov	-11.5282
▁senior	-11.5282
▁phase	-11.5282
▁effectual	-11.5282
▁shabb	-11.5282
▁clue	-11.5282
▁rippl	-11.5283
▁caroline	-11.5284
▁edition	-11.5284
▁balcon	-11.5284
▁jelly	-11.5285
▁refreshment	-11.5286
▁southward	-11.5286
▁scornful	-11.5287
▁impressive	-11.5288
▁overhear	-11.5288
▁abide	-11.529
▁contradiction	-11.529
▁candid	-11.5294
▁rebellion	-11.5297
▁rend	-11.5321
▁sect	-11.5325
▁sacrific	-11.5335
▁treacher	-11.5368
▁revolutionar	-11.5369
▁alexey	-11.537
▁drows	-11.537
▁neutral	-11.537
▁phantom	-11.537
▁renown	-11.537
▁daddy	-11.537
▁intoxicat	-11.537
▁preference	-11.537
▁appall	-11.537
▁alternate	-11.537
▁blunder	-11.5371
▁pebble	-11.5372
▁matron	-11.5372
▁santa	-11.5376
▁riot	-11.538
▁pav	-11.5383
▁tank	-11.5384
▁avert	-11.5386
▁conqueror	-11.5398
▁refusal	-11.5408
▁payment	-11.541
▁gust	-11.5413
▁tipp	-11.5434
▁australia	-11.546
▁explosion	-11.546
▁historian	-11.546
▁achievement	-11.5461
▁fortress	-11.5461
▁barbarous	-11.5461
▁announcement	-11.5463
▁northward	-11.5464
▁urgent	-11.5467
▁jeff	-11.5468
▁signifie	-11.5472
▁rustle	-11.5473
▁olive	-11.5483
▁fifteenth	-11.5484
▁expressive	-11.5485
▁lovelie	-11.5492
▁nell	-11.5494
fellow	-11.5505
iah	-11.5507
▁successor	-11.5528
▁unhappi	-11.5537
▁lava	-11.5539
▁disregard	-11.555
▁extravagant	-11.555
▁festival	-11.555
▁graduat	-11.555
▁hyacinth	-11.555
▁sulphur	-11.555
▁vegetati	-11.555
▁uproar	-11.555
▁implore	-11.555
▁advertisement	-11.5551
▁stride	-11.5554
▁litter	-11.5556
▁mound	-11.5558
▁yoke	-11.5558
▁lugg	-11.556
▁exult	-11.556
▁adventurer	-11.556
▁conventional	-11.5564
▁ojo	-11.5569
▁panel	-11.5577
▁compli	-11.5582
mphi	-11.559
▁edi	-11.5607
boat	-11.5613
udge	-11.5627
▁bapti	-11.564
▁accusation	-11.5641
▁condescend	-11.5641
▁disapprov	-11.5641
▁revenue	-11.5641
▁sacrament	-11.5641
▁insolent	-11.5641
▁illustri	-11.5641
▁fidel	-11.5641
▁holmes	-11.5641
▁hamlet	-11.5642
▁revel	-11.5643
▁ankle	-11.5643
▁turf	-11.5645
▁frail	-11.5648
rches	-11.5649
▁breadth	-11.5669
▁strok	-11.5677
▁shaw	-11.5693
▁emergenc	-11.5698
eep	-11.5712
▁tranquill	-11.5718
▁clump	-11.5732
▁girdle	-11.5732
▁grotesque	-11.5732
▁inconvenience	-11.5732
▁overthrow	-11.5732
▁lynde	-11.5732
▁deput	-11.5732
▁stunn	-11.5732
▁gnaw	-11.5732
▁thenardier	-11.5732
▁reef	-11.5733
▁arabella	-11.5733
▁beryl	-11.5733
▁bucket	-11.5733
▁prosperous	-11.5734
▁muslin	-11.5735
mitten	-11.5742
▁unfold	-11.5745
▁personalit	-11.5755
▁spectr	-11.5756
▁milan	-11.5763
▁allowance	-11.5766
▁radian	-11.577
court	-11.5786
▁unti	-11.5795
▁musician	-11.5814
▁musket	-11.5824
▁legitimate	-11.5825
▁asylum	-11.5825
▁grushenka	-11.5825
▁prescrib	-11.5825
▁supposition	-11.5825
▁thursday	-11.5825
▁tribute	-11.5825
▁alternative	-11.5825
▁coax	-11.5825
▁edwin	-11.5825
▁pretence	-11.5825
▁horace	-11.5825
▁infect	-11.5825
▁essay	-11.5825
loft	-11.5826
▁dye	-11.5827
▁booth	-11.583
▁terrific	-11.5832
▁moth	-11.5837
▁unlock	-11.5839
▁saul	-11.584
▁seventeenth	-11.5843
▁alteration	-11.5846
▁rite	-11.5853
char	-11.5863
jah	-11.5879
▁vile	-11.588
▁chao	-11.5891
▁compound	-11.5918
▁compromise	-11.5918
▁douglas	-11.5918
▁emerald	-11.5918
▁monotonous	-11.5918
▁austria	-11.5918
▁chalk	-11.5918
▁tropic	-11.5918
▁valiant	-11.5918
▁charlie	-11.5918
▁vicin	-11.5918
▁chivalr	-11.5918
▁michel	-11.5919
▁forbear	-11.5919
▁malice	-11.5919
▁heathen	-11.5922
▁mason	-11.5923
▁obstruct	-11.5924
▁nobleman	-11.5946
forehand	-11.5955
▁devote	-11.5962
▁grade	-11.5974
▁chip	-11.5975
▁encouraging	-11.6013
▁gwynplaine	-11.6013
▁indescribabl	-11.6013
▁junior	-11.6013
▁splendour	-11.6013
▁cherry	-11.6013
▁usurp	-11.6013
▁grandeur	-11.6013
▁elapse	-11.6013
▁var	-11.6018
served	-11.6019
▁bellow	-11.6022
liable	-11.6024
▁oppression	-11.6025
▁merce	-11.6026
▁petty	-11.6026
▁herald	-11.6041
▁representation	-11.6044
▁usher	-11.6055
▁momentar	-11.6065
▁artillery	-11.6108
▁convenience	-11.6108
▁cossack	-11.6108
▁ecstas	-11.6108
▁forthwith	-11.6108
▁henriette	-11.6108
▁pyramid	-11.6108
▁repetition	-11.6108
▁saunders	-11.6108
▁bumble	-11.6108
▁lavish	-11.6108
▁vicious	-11.6108
▁glee	-11.6109
▁beaver	-11.6109
▁orlean	-11.6109
▁prodigious	-11.6109
▁riddle	-11.6112
▁brake	-11.6123
▁efficien	-11.6149
fresh	-11.6157
▁superb	-11.616
▁catastrophe	-11.6204
▁jonathan	-11.6204
▁sombre	-11.6204
▁equipp	-11.6204
▁evolution	-11.6204
▁renounc	-11.6204
▁wiggily	-11.6204
▁glisten	-11.6204
▁rouble	-11.6204
▁slack	-11.6204
▁trivial	-11.6204
▁imposing	-11.6204
▁clatter	-11.6204
▁elinor	-11.6204
▁sturd	-11.6204
▁eventual	-11.6204
▁treacherous	-11.6207
▁scour	-11.6208
▁repentance	-11.6208
▁barbarian	-11.6211
▁code	-11.6215
▁mystic	-11.6218
▁lever	-11.624
▁inevitab	-11.6296
▁democrac	-11.6301
▁guarantee	-11.6301
▁perspir	-11.6301
▁ridicule	-11.6301
▁stubborn	-11.6301
▁treason	-11.6301
▁automatic	-11.6301
▁besieg	-11.6301
▁tuft	-11.6301
▁puritan	-11.6304
▁relationship	-11.6304
▁marianne	-11.6305
▁bristl	-11.6308
▁ranch	-11.6311
▁package	-11.6313
▁ceremonie	-11.6314
▁sixteenth	-11.6318
▁roam	-11.6319
▁infer	-11.632
▁airship	-11.6324
▁clar	-11.6382
▁gum	-11.6397
surmount	-11.6399
▁scrub	-11.6399
▁synonym	-11.6399
▁tremulous	-11.6399
▁contemporar	-11.6399
▁devout	-11.6399
▁antiquit	-11.6399
▁senor	-11.64
▁cyr	-11.6401
omo	-11.6406
▁severit	-11.6408
▁aristocratic	-11.6409
▁verge	-11.6415
▁kha	-11.6415
▁peck	-11.6416
▁hoop	-11.6419
▁wholesome	-11.642
▁pike	-11.6425
▁stro	-11.6431
▁revolv	-11.6454
▁quarrell	-11.6465
▁magnet	-11.6474
▁stab	-11.6487
▁mexic	-11.6491
▁dru	-11.6497
▁caravan	-11.6498
▁defarge	-11.6498
▁requisite	-11.6498
▁shirley	-11.6498
▁shroud	-11.6498
▁lewis	-11.6498
▁parrot	-11.6498
▁operator	-11.6498
▁eyelid	-11.6498
▁parsley	-11.6499
▁unfit	-11.65
▁skipp	-11.6503
▁trait	-11.6505
▁resignation	-11.651
▁frontier	-11.6511
▁bandit	-11.6517
▁judi	-11.6536
▁peculiarit	-11.6541
dition	-11.6574
▁boar	-11.6587
▁adequate	-11.6598
▁cabbage	-11.6598
▁calhoun	-11.6598
▁infirm	-11.6598
▁montgomery	-11.6598
▁preliminar	-11.6598
▁sydney	-11.6598
▁tissue	-11.6598
▁violin	-11.6598
▁therewith	-11.6598
▁flirt	-11.6598
▁unique	-11.6598
▁enlist	-11.6598
▁rapture	-11.6598
▁transaction	-11.6599
▁flaming	-11.6599
▁rogue	-11.6602
▁identifi	-11.6608
▁decoration	-11.6608
▁consistent	-11.6609
▁disappearance	-11.6614
▁breech	-11.6616
▁destination	-11.6618
agement	-11.6636
accessible	-11.6664
▁persecut	-11.6693
▁geolog	-11.6695
▁vigor	-11.6697
▁shov	-11.6697
▁antagonist	-11.6699
▁extinct	-11.6699
▁merciful	-11.6699
▁obscurit	-11.6699
▁reassure	-11.6699
▁receipt	-11.6699
▁remnant	-11.6699
▁reproduc	-11.6699
▁schooner	-11.6699
▁unmistakabl	-11.6699
▁delusion	-11.6699
▁russell	-11.6699
▁canadian	-11.6699
▁blend	-11.6699
▁baffl	-11.6699
▁bryce	-11.67
▁bennet	-11.67
▁impass	-11.67
▁churchyard	-11.67
▁creator	-11.6701
▁huron	-11.6703
▁lucian	-11.6704
▁perilous	-11.6705
▁salary	-11.6705
▁affliction	-11.6708
▁filth	-11.6709
▁depression	-11.6709
▁damon	-11.6713
▁daisy	-11.6716
▁theories	-11.6718
▁mona	-11.6719
▁forgetful	-11.6725
▁practic	-11.6725
▁defi	-11.6734
▁thro	-11.6748
▁cromwell	-11.6801
▁cuthbert	-11.6801
▁destitut	-11.6801
▁secrec	-11.6801
▁offensive	-11.6801
▁overcoat	-11.6801
▁snarl	-11.6801
▁teresa	-11.6801
▁javert	-11.6801
▁pathetic	-11.6801
▁smother	-11.6802
▁charley	-11.6805
▁sinner	-11.6807
▁berrie	-11.681
▁anticipation	-11.6815
▁badger	-11.6816
thorpe	-11.686
▁narrat	-11.6902
▁fragrant	-11.6904
▁indispensabl	-11.6904
▁sculpture	-11.6904
▁stuart	-11.6904
▁vanquish	-11.6904
▁diffus	-11.6904
▁sagaci	-11.6904
▁wistful	-11.6904
▁piteous	-11.6904
▁reverend	-11.6904
▁odour	-11.6905
▁sulk	-11.6905
▁garret	-11.6905
▁adela	-11.6905
▁carbon	-11.6905
▁postpon	-11.6905
▁latch	-11.6905
▁carolina	-11.6905
▁olymp	-11.6905
▁restrict	-11.6905
▁ogre	-11.6907
▁stress	-11.691
▁crude	-11.691
▁executive	-11.6911
▁rector	-11.6912
▁shameful	-11.6919
▁crater	-11.6924
course	-11.6931
▁mimi	-11.6943
▁pew	-11.6979
▁feebl	-11.7006
▁matrimon	-11.7009
▁rhythm	-11.7009
▁automobile	-11.7009
▁grumble	-11.7009
▁identical	-11.7009
▁intrigue	-11.7009
▁jupiter	-11.7009
▁moustache	-11.7009
▁research	-11.7009
▁sanction	-11.7009
▁forlorn	-11.7009
▁sample	-11.7009
▁grocer	-11.7009
▁kentuck	-11.7009
▁sonya	-11.701
▁jenny	-11.7011
▁lonesome	-11.7011
▁inheritance	-11.7011
▁columbia	-11.7013
▁hinge	-11.7013
▁circl	-11.7025
▁politician	-11.7032
▁discharg	-11.7048
▁gratifi	-11.7049
discriminat	-11.7051
▁marvell	-11.7052
terrane	-11.7113
▁excellence	-11.7114
▁taylor	-11.7114
▁twitch	-11.7114
munition	-11.7114
▁feign	-11.7114
▁planchet	-11.7114
▁ethel	-11.7114
▁gawain	-11.7114
▁behavio	-11.7115
▁interference	-11.7115
▁beautie	-11.7116
▁pickwick	-11.7117
▁luxurious	-11.7117
▁eastward	-11.7118
▁humiliation	-11.7125
▁rigg	-11.7126
▁shun	-11.7135
▁tito	-11.7137
▁insert	-11.7137
urance	-11.7141
▁amend	-11.7145
credulous	-11.7171
▁stimul	-11.7178
▁husk	-11.7208
▁twel	-11.7215
▁georgia	-11.722
▁circus	-11.722
▁episode	-11.722
▁luminous	-11.722
▁miraculous	-11.722
▁suicide	-11.722
▁supernatural	-11.722
▁ungrateful	-11.722
▁volcano	-11.722
▁harriet	-11.722
▁meditation	-11.722
▁mutton	-11.722
▁fulton	-11.7221
▁prowl	-11.7221
▁companie	-11.7221
▁nought	-11.7221
▁flask	-11.7222
▁imprisonment	-11.7224
▁tiptoe	-11.7227
▁heroine	-11.7232
▁attendance	-11.7237
▁toilet	-11.7268
▁garb	-11.7316
lung	-11.7318
▁logic	-11.7321
▁detest	-11.7326
▁boffin	-11.7328
▁chichikov	-11.7328
▁congregation	-11.7328
▁financial	-11.7328
▁ingredient	-11.7328
▁sparrow	-11.7328
▁strife	-11.7328
▁submission	-11.7328
▁fathom	-11.7328
▁clench	-11.7328
▁ingenuit	-11.7328
▁compartment	-11.7328
▁entrust	-11.7328
▁flanders	-11.7328
▁abound	-11.7328
▁deficien	-11.7328
▁conjur	-11.7328
▁adult	-11.7328
▁avow	-11.7329
▁clown	-11.7329
▁cripple	-11.7329
▁baronet	-11.7329
▁cycl	-11.733
▁victorious	-11.733
▁genial	-11.7331
▁galley	-11.7331
▁correspondent	-11.7332
▁franklin	-11.7333
▁enchantment	-11.7335
▁manifestation	-11.7345
▁agenc	-11.7377
fancy	-11.7392
▁presum	-11.7393
▁guil	-11.7425
▁uneasi	-11.7431
▁encamp	-11.7436
▁apparition	-11.7436
▁caliph	-11.7436
▁consecrat	-11.7436
▁discord	-11.7436
▁lennox	-11.7436
▁outstretch	-11.7436
▁plentiful	-11.7436
▁suburb	-11.7436
▁vapor	-11.7436
▁whirlwind	-11.7436
▁cricket	-11.7436
▁knive	-11.7436
▁dripping	-11.7436
▁aversion	-11.7436
▁signify	-11.7436
▁seduc	-11.7437
▁morris	-11.7437
▁defiant	-11.7438
▁troy	-11.7439
▁blanch	-11.744
▁francisco	-11.7441
▁psych	-11.7447
▁descendant	-11.745
▁reap	-11.7463
bourg	-11.7465
▁rumor	-11.7475
▁spat	-11.7475
▁humiliat	-11.7496
▁genie	-11.7541
▁reput	-11.7546
ontal	-11.7546
▁abominabl	-11.7546
▁eminence	-11.7546
▁recruit	-11.7546
▁subordinate	-11.7546
▁syllable	-11.7546
▁thompson	-11.7546
▁blink	-11.7546
▁ruddy	-11.7546
▁invasion	-11.7546
▁glaring	-11.7546
▁cooper	-11.7546
▁profan	-11.7546
▁betroth	-11.7546
▁coloss	-11.7546
▁tutor	-11.7546
▁spencer	-11.7547
▁breach	-11.7547
▁robinson	-11.7547
▁socialist	-11.7549
▁localit	-11.7551
▁rotten	-11.7551
▁burton	-11.7552
▁impell	-11.7553
▁morland	-11.7556
▁fluid	-11.7557
▁err	-11.7563
▁loop	-11.7573
▁wrap	-11.7628
risen	-11.7629
▁transfer	-11.7643
▁mischievous	-11.7657
▁annihilat	-11.7657
▁cavalier	-11.7657
▁collaps	-11.7657
▁entangl	-11.7657
▁interrogat	-11.7657
▁imperative	-11.7657
▁traffic	-11.7657
▁waverley	-11.7657
▁license	-11.7657
▁premise	-11.7658
▁dedicat	-11.7658
▁denominat	-11.7658
▁nemo	-11.7659
▁gould	-11.7659
▁insane	-11.7659
▁amendment	-11.766
▁oppressive	-11.7662
▁companionship	-11.7664
▁phine	-11.7668
▁mantel	-11.7669
▁magnetic	-11.7685
▁disput	-11.7689
▁envelop	-11.7697
▁pork	-11.772
▁interfer	-11.7756
▁constitut	-11.776
▁oblivio	-11.777
▁technical	-11.777
seigneur	-11.777
▁abolish	-11.777
▁archbishop	-11.777
▁cemeter	-11.777
▁choking	-11.777
▁competition	-11.777
▁cylinder	-11.777
▁godfrey	-11.777
▁hospitabl	-11.777
▁remonstrance	-11.777
▁ruffian	-11.777
▁thereafter	-11.777
▁unreasonable	-11.777
▁vigilan	-11.777
▁bureau	-11.777
▁chestnut	-11.777
▁inference	-11.777
▁liberat	-11.777
nburgh	-11.777
▁troll	-11.777
▁hostilit	-11.7771
▁displeasure	-11.7771
▁belgi	-11.7772
▁industrious	-11.7773
▁inspection	-11.7775
▁persecution	-11.7777
stein	-11.7818
kov	-11.7822
▁reasonabl	-11.7872
▁aristocrac	-11.7883
▁conscientious	-11.7883
▁deliberation	-11.7883
▁diameter	-11.7883
▁expenditure	-11.7883
▁impossibilit	-11.7883
▁indistinct	-11.7883
▁insignificant	-11.7883
▁lukashka	-11.7883
▁matilda	-11.7883
▁persuasion	-11.7883
▁scientist	-11.7883
▁simpson	-11.7883
▁baggage	-11.7883
▁lawrence	-11.7883
▁misunderstand	-11.7883
▁snug	-11.7883
▁yacht	-11.7883
▁carroll	-11.7883
▁fishermen	-11.7883
▁radiat	-11.7883
▁inviting	-11.7884
▁recurr	-11.7884
▁negotiation	-11.7884
▁repay	-11.7884
▁millionaire	-11.7884
▁condens	-11.7885
▁wove	-11.7886
▁void	-11.7891
▁malad	-11.7893
▁sallie	-11.7894
▁clash	-11.7897
▁basil	-11.7905
▁valor	-11.7908
▁theater	-11.7936
▁humili	-11.7938
▁crane	-11.7955
▁crumbl	-11.796
▁broth	-11.7978
▁physic	-11.7978
▁gorge	-11.7997
▁alphabet	-11.7998
▁auspicious	-11.7998
▁buccaneer	-11.7998
▁discomfort	-11.7998
▁indirect	-11.7998
▁landlady	-11.7998
▁mechanism	-11.7998
▁oriental	-11.7998
▁philosophical	-11.7998
▁phronsie	-11.7998
▁proclamation	-11.7998
▁thrash	-11.7998
▁unanimous	-11.7998
▁denounc	-11.7998
▁celesti	-11.7998
▁fervent	-11.7998
▁grudge	-11.7998
▁turret	-11.7998
▁constable	-11.7999
▁mumm	-11.7999
▁syria	-11.7999
▁tedious	-11.7999
▁confinement	-11.8001
▁lilie	-11.8001
▁cedar	-11.8002
▁taunt	-11.8003
▁sandford	-11.8003
▁grievous	-11.8008
▁forego	-11.8009
▁communion	-11.801
▁hateful	-11.8014
▁birch	-11.8041
▁sauc	-11.8075
▁ascrib	-11.8115
▁assumption	-11.8115
▁chemical	-11.8115
▁controvers	-11.8115
▁delaware	-11.8115
▁dimension	-11.8115
▁dmitri	-11.8115
▁florentine	-11.8115
▁gertrude	-11.8115
▁impulsive	-11.8115
▁jehovah	-11.8115
▁magdalen	-11.8115
▁malicious	-11.8115
▁massachuset	-11.8115
▁mohammed	-11.8115
▁pennsylvania	-11.8115
▁populace	-11.8115
▁provincial	-11.8115
▁resound	-11.8115
▁steadfast	-11.8115
▁testament	-11.8115
▁squeak	-11.8115
▁partition	-11.8115
competent	-11.8115
▁hearken	-11.8115
▁ministr	-11.8115
▁analog	-11.8115
▁slate	-11.8115
▁ferocious	-11.8116
▁broom	-11.8119
▁picket	-11.812
▁brew	-11.8121
▁scrutini	-11.8133
▁choos	-11.8141
▁magnificen	-11.8177
▁wren	-11.8216
▁barbar	-11.8218
▁acquiesc	-11.8232
▁freight	-11.8232
▁peppino	-11.8232
▁scissor	-11.8232
▁stepmother	-11.8232
▁unaccountabl	-11.8232
▁unbroke	-11.8232
▁verdict	-11.8232
▁vincent	-11.8232
▁empress	-11.8232
▁phillips	-11.8232
▁recoil	-11.8232
▁quench	-11.8232
▁eames	-11.8232
▁shrine	-11.8232
▁enrage	-11.8232
▁ruffl	-11.8233
▁davis	-11.8233
▁enclosure	-11.8234
▁meditate	-11.8235
▁garland	-11.8241
▁spun	-11.8246
▁bribe	-11.8271
▁prosper	-11.8272
▁bland	-11.8287
▁critici	-11.8288
ilett	-11.8299
▁explod	-11.8351
▁inscription	-11.8351
▁morcerf	-11.8351
▁nelson	-11.8351
▁ominous	-11.8351
▁rhyme	-11.8351
▁unequal	-11.8351
▁willoughby	-11.8351
▁superflu	-11.8351
▁stack	-11.8351
▁infernal	-11.8351
▁scowl	-11.8351
▁shuffl	-11.8351
▁karl	-11.8351
▁laurel	-11.8351
▁despot	-11.8351
▁pension	-11.8354
▁indoor	-11.8355
▁compress	-11.8355
▁contrivance	-11.8357
▁spade	-11.8365
▁wrench	-11.837
tung	-11.8399
▁determin	-11.8454
▁benevolent	-11.8472
▁bicycle	-11.8472
▁disconcert	-11.8472
▁epoch	-11.8472
▁improper	-11.8472
▁indebted	-11.8472
▁inquisitive	-11.8472
▁jersey	-11.8472
▁paragraph	-11.8472
▁susceptib	-11.8472
▁brink	-11.8472
▁jeffrey	-11.8472
▁martial	-11.8472
▁nigger	-11.8472
▁deceit	-11.8472
▁almah	-11.8472
▁unaware	-11.8472
▁scann	-11.8472
▁destructive	-11.8473
▁weird	-11.8475
▁shark	-11.8481
memorial	-11.8483
▁juda	-11.8519
▁balanc	-11.8535
elope	-11.8544
quarters	-11.8549
folk	-11.8549
spring	-11.855
▁bah	-11.8552
▁conspir	-11.8567
quois	-11.8594
▁blacksmith	-11.8594
▁mushroom	-11.8594
▁peacock	-11.8594
▁punctual	-11.8594
▁superficial	-11.8594
▁anthony	-11.8594
▁hannah	-11.8594
▁fabric	-11.8594
▁redeem	-11.8594
▁tatter	-11.8594
▁jarvis	-11.8594
▁undress	-11.8594
▁unselfish	-11.8594
▁stony	-11.8595
▁ransom	-11.8595
▁penetrating	-11.8595
▁towel	-11.8597
▁infallibl	-11.8597
▁stow	-11.8603
eph	-11.8659
▁boundar	-11.8663
▁villa	-11.8689
arathustra	-11.8717
corporeal	-11.8717
▁chocolate	-11.8717
▁chronicle	-11.8717
▁constituent	-11.8717
▁courier	-11.8717
▁irritation	-11.8717
▁nickleby	-11.8717
▁obstinac	-11.8717
▁osborne	-11.8717
▁spacious	-11.8717
▁transcend	-11.8717
▁veteran	-11.8717
▁channing	-11.8717
▁hudson	-11.8717
▁snail	-11.8717
▁enrich	-11.8717
▁abbot	-11.8717
▁sterling	-11.8717
▁plaintive	-11.8717
▁sift	-11.8718
▁fanatic	-11.8718
▁headache	-11.8718
▁baptism	-11.8719
▁uncover	-11.872
animate	-11.8733
ologist	-11.8733
▁slit	-11.8763
▁activit	-11.8775
▁plea	-11.8778
▁moralit	-11.8793
q	-11.88
▁wade	-11.8813
▁corps	-11.8835
sensible	-11.8838
▁conservative	-11.8842
▁felix	-11.8842
▁maurice	-11.8842
▁murray	-11.8842
▁occupant	-11.8842
▁petticoat	-11.8842
▁precipitate	-11.8842
▁talbot	-11.8842
▁thwart	-11.8842
▁typical	-11.8842
▁vapour	-11.8842
▁montoni	-11.8842
▁ordain	-11.8842
▁alexandrovitch	-11.8842
▁slant	-11.8842
sumptuous	-11.8842
▁tackle	-11.8842
▁proving	-11.8842
▁bertram	-11.8843
▁genji	-11.8843
▁pussy	-11.8843
▁raymond	-11.8843
▁stitch	-11.8844
▁lorry	-11.885
▁impruden	-11.8855
▁designat	-11.8902
alais	-11.8906
satisfied	-11.8924
nstru	-11.8967
▁prodig	-11.8968
▁benevolence	-11.8969
▁bridegroom	-11.8969
▁concession	-11.8969
▁decreas	-11.8969
▁equipment	-11.8969
▁eruption	-11.8969
▁exclusion	-11.8969
▁handwriting	-11.8969
▁hopkins	-11.8969
▁insurrection	-11.8969
▁rheumati	-11.8969
▁sleigh	-11.8969
▁spontaneous	-11.8969
▁sweetheart	-11.8969
▁abstain	-11.8969
▁censure	-11.8969
▁disobey	-11.8969
▁scorch	-11.8969
▁dishonest	-11.8969
▁astound	-11.8969
▁snare	-11.8969
▁loiter	-11.8969
▁yankee	-11.8969
▁gyp	-11.897
▁impetuous	-11.8971
▁errant	-11.8971
▁sorcer	-11.8971
▁rumour	-11.8971
▁salmon	-11.8971
▁envious	-11.8973
▁swoon	-11.8973
▁shovel	-11.8978
▁clem	-11.8987
▁psychic	-11.9015
▁moderati	-11.9029
▁butterfl	-11.903
▁societ	-11.903
▁diar	-11.9059
▁virgil	-11.9097
▁abnormal	-11.9097
▁hysterical	-11.9097
▁metropoli	-11.9097
▁strenuous	-11.9097
▁applaud	-11.9097
▁cambridge	-11.9097
▁chevalier	-11.9097
▁environment	-11.9097
▁institute	-11.9097
▁magnitude	-11.9097
▁refinement	-11.9097
▁rufford	-11.9097
▁vigour	-11.9097
▁precept	-11.9097
▁pulpit	-11.9097
▁stanley	-11.9097
▁bracelet	-11.9097
▁relish	-11.9097
▁radical	-11.9097
▁mold	-11.9097
▁coincidence	-11.9097
▁vinegar	-11.9098
▁burglar	-11.9098
▁bulg	-11.9098
▁fortifi	-11.9098
▁queri	-11.9099
▁cheque	-11.9103
▁gush	-11.9105
▁abat	-11.9112
▁tusk	-11.9129
morph	-11.9137
▁reverie	-11.9148
▁forcibl	-11.915
▁loneli	-11.9183
▁nibbl	-11.9218
▁disagree	-11.9222
▁rescu	-11.9225
▁peach	-11.9225
▁arbitrar	-11.9227
▁bohemia	-11.9227
▁dungeon	-11.9227
▁maximilian	-11.9227
▁picnic	-11.9227
▁scaffold	-11.9227
▁theatrical	-11.9227
▁thorndyke	-11.9227
▁tumbling	-11.9227
▁bramble	-11.9227
▁kenneth	-11.9227
▁vrain	-11.9227
▁vacation	-11.9227
▁larry	-11.9227
▁strangl	-11.9227
▁notorious	-11.9227
▁joking	-11.9227
▁hatchet	-11.9227
▁fraud	-11.9231
▁wilful	-11.9233
▁deuce	-11.9261
▁reluctan	-11.9303
▁monopol	-11.9306
▁dominat	-11.9356
▁barbicane	-11.9358
▁caterpillar	-11.9358
▁displac	-11.9358
▁encircl	-11.9358
▁engrav	-11.9358
▁guiche	-11.9358
▁incomprehensibl	-11.9358
▁insolence	-11.9358
▁legislation	-11.9358
▁pecuniar	-11.9358
▁venetian	-11.9358
▁haggard	-11.9358
▁redoubl	-11.9358
▁famine	-11.9358
▁monica	-11.9358
▁exhort	-11.9358
▁repast	-11.9359
▁surmise	-11.9359
▁cynic	-11.9359
▁stacy	-11.9361
▁mountaineer	-11.9365
▁aisle	-11.9369
▁propertie	-11.9382
▁conspirac	-11.9387
▁undulat	-11.9402
▁absurdit	-11.947
band	-11.9487
▁merciless	-11.9492
▁alfred	-11.9492
▁apparel	-11.9492
▁aspiration	-11.9492
▁beauchamp	-11.9492
▁boolooroo	-11.9492
▁convulsion	-11.9492
▁kangaroo	-11.9492
▁lobster	-11.9492
▁milburgh	-11.9492
▁sneak	-11.9492
▁uplift	-11.9492
▁metaphysic	-11.9492
▁clarence	-11.9492
▁divinity	-11.9492
▁pioneer	-11.9492
▁fantine	-11.9492
▁target	-11.9492
▁corinth	-11.9492
▁hubert	-11.9493
▁wring	-11.9494
animit	-11.9499
▁avaric	-11.9504
▁dilat	-11.9509
▁miserabl	-11.9576
▁inspect	-11.9616
▁alexandr	-11.9627
▁shrub	-11.9627
▁odysse	-11.9627
▁aperture	-11.9627
▁colleague	-11.9627
▁commotion	-11.9627
▁confederac	-11.9627
▁elastic	-11.9627
▁engross	-11.9627
▁flannel	-11.9627
▁fragrance	-11.9627
▁frivolous	-11.9627
▁immaterial	-11.9627
▁lecoq	-11.9627
▁masculine	-11.9627
▁miriam	-11.9627
▁pretext	-11.9627
▁winterbourne	-11.9627
▁knob	-11.9627
▁buckingham	-11.9627
▁bleak	-11.9627
▁orchestra	-11.9627
▁gordon	-11.9627
▁trigger	-11.9627
▁enact	-11.9627
▁clamor	-11.9627
▁hamper	-11.9627
▁nightmare	-11.9627
▁brenda	-11.9628
▁sedley	-11.9628
▁defy	-11.9628
▁originat	-11.9628
▁outfit	-11.9629
▁repell	-11.9631
▁integr	-11.9631
▁corneli	-11.9635
▁approbat	-11.9764
▁brillianc	-11.9764
▁crucifi	-11.9764
▁draft	-11.9764
▁elegance	-11.9764
▁forefinger	-11.9764
▁kadok	-11.9764
▁kenwigs	-11.9764
▁mitchell	-11.9764
▁pretension	-11.9764
▁reginald	-11.9764
▁sarcastic	-11.9764
▁squadron	-11.9764
▁sylvie	-11.9764
▁enigma	-11.9764
▁carthage	-11.9764
▁perverse	-11.9764
▁fergus	-11.9764
▁overturn	-11.9764
▁texa	-11.9764
▁myriad	-11.9765
▁warren	-11.9765
▁gear	-11.9765
▁extension	-11.9765
▁version	-11.9766
▁sprawl	-11.9766
undry	-11.9781
▁adventur	-11.9824
▁abject	-11.9903
▁anecdote	-11.9903
▁benjamin	-11.9903
▁disinterested	-11.9903
▁ejaculate	-11.9903
▁equivalent	-11.9903
▁horrifi	-11.9903
▁jacques	-11.9903
▁tebrick	-11.9903
▁censor	-11.9903
▁hydro	-11.9903
▁mortimer	-11.9903
▁participat	-11.9903
▁shrunk	-11.9903
▁coronel	-11.9903
▁implement	-11.9903
▁veranda	-11.9903
▁morbid	-11.9903
▁stevens	-11.9903
▁austin	-11.9903
▁snob	-11.9903
▁teddy	-11.9903
▁initial	-11.9903
▁morsel	-11.9904
flower	-11.9904
▁duncan	-11.9904
▁offense	-11.9904
▁evinc	-11.9904
▁hereditar	-11.9904
▁projectile	-11.9906
▁suffic	-11.9968
▁desperat	-11.9983
▁accura	-12.0042
eference	-12.0044
▁armstrong	-12.0044
▁conniston	-12.0044
▁harrington	-12.0044
▁inexpressibl	-12.0044
▁nekhludoff	-12.0044
▁orthodox	-12.0044
▁predecessor	-12.0044
▁saviour	-12.0044
▁smuggl	-12.0044
▁evaporat	-12.0044
▁nimble	-12.0044
▁prowess	-12.0044
▁flavor	-12.0044
▁futile	-12.0044
▁massacre	-12.0044
▁scope	-12.0044
▁bingley	-12.0044
▁pervad	-12.0044
▁straggl	-12.0044
▁merlin	-12.0044
charitable	-12.0045
▁purit	-12.0104
▁frederic	-12.0183
▁perturb	-12.0186
▁aristotle	-12.0186
▁burrow	-12.0186
▁chipmunk	-12.0186
▁eclipse	-12.0186
▁elphick	-12.0186
▁inscrib	-12.0186
▁insufficient	-12.0186
▁jervis	-12.0186
▁mercury	-12.0186
▁mukoki	-12.0186
▁romola	-12.0186
▁scrupulous	-12.0186
▁smack	-12.0186
▁client	-12.0186
▁crevice	-12.0186
▁plunging	-12.0186
▁bewitch	-12.0187
▁chunk	-12.0187
▁imperious	-12.0187
▁currant	-12.0187
▁gretel	-12.0187
▁snub	-12.0187
▁horde	-12.0187
▁shaving	-12.0187
▁clavering	-12.0187
▁mortification	-12.0187
▁linton	-12.0187
▁remedie	-12.0187
▁retrac	-12.0187
▁alban	-12.0187
▁armand	-12.0187
▁forecast	-12.0188
▁tinkl	-12.0188
▁croak	-12.019
▁modifie	-12.0194
▁tortur	-12.02
stock	-12.0294
▁imperceptibl	-12.0331
▁intrinsic	-12.0331
▁intuition	-12.0331
▁junction	-12.0331
▁repugnan	-12.0331
▁rouletabille	-12.0331
▁screech	-12.0331
▁hurstwood	-12.0331
▁stupef	-12.0331
▁artifice	-12.0331
▁degenerat	-12.0331
▁apollo	-12.0331
▁expend	-12.0331
▁unchange	-12.0331
▁gloss	-12.0331
▁discard	-12.0331
▁propensit	-12.0332
▁ravag	-12.0332
▁huntsman	-12.0332
▁poult	-12.0333
▁kirk	-12.0333
▁roost	-12.0334
precedent	-12.0435
▁nothin	-12.0441
▁boulder	-12.0478
▁cataract	-12.0478
▁compensation	-12.0478
▁conclusive	-12.0478
▁diligence	-12.0478
▁eugene	-12.0478
▁expanse	-12.0478
▁ferdinand	-12.0478
▁footprint	-12.0478
▁impenetrabl	-12.0478
▁inexperience	-12.0478
▁inexplicabl	-12.0478
▁irritabl	-12.0478
▁outburst	-12.0478
▁pamphlet	-12.0478
▁perpendicular	-12.0478
▁photoplay	-12.0478
▁presbyterian	-12.0478
▁transgress	-12.0478
▁valancourt	-12.0478
▁wriggl	-12.0478
▁giddy	-12.0478
▁goblin	-12.0479
▁brigand	-12.0479
▁migrat	-12.0479
▁patrol	-12.0479
▁durrance	-12.0479
▁beetle	-12.0479
▁exterior	-12.0479
▁helium	-12.048
▁ebb	-12.0484
▁enmit	-12.0492
rmo	-12.0516
▁weave	-12.0574
▁skirmish	-12.0628
▁crocodile	-12.0628
▁galahad	-12.0628
▁hoopdriver	-12.0628
▁reinforcement	-12.0628
▁telescope	-12.0628
▁unearth	-12.0628
▁wharf	-12.0628
▁lufton	-12.0628
▁stork	-12.0628
▁poyser	-12.0628
▁collins	-12.0628
▁wyat	-12.0628
▁antonia	-12.0628
▁forfeit	-12.0628
▁colbert	-12.0628
▁precisi	-12.0629
▁frigate	-12.0629
▁mustache	-12.0635
▁randal	-12.0657
▁disappoint	-12.0668
▁strawberr	-12.0685
▁qualifi	-12.0779
▁apprentice	-12.0779
▁convulsive	-12.0779
▁demeanour	-12.0779
▁desolation	-12.0779
▁embracing	-12.0779
▁instantaneous	-12.0779
▁jerome	-12.0779
▁miniature	-12.0779
▁semblance	-12.0779
▁terrify	-12.0779
▁wardrobe	-12.0779
▁accost	-12.0779
▁parchment	-12.0779
▁remonstrat	-12.0779
▁sojourn	-12.0779
metheus	-12.0779
▁barrack	-12.0779
▁dundee	-12.0779
▁rebuke	-12.0779
▁chemist	-12.0779
▁fyodorovitch	-12.0779
▁deign	-12.0779
▁bawl	-12.078
▁impend	-12.078
▁musketeer	-12.078
▁josie	-12.078
▁pensive	-12.0781
▁tartar	-12.0781
▁concede	-12.08
disturbed	-12.0888
▁benefactor	-12.0933
▁berwin	-12.0933
▁galloway	-12.0933
▁hurrah	-12.0933
▁impertinent	-12.0933
▁imploring	-12.0933
▁inconvenient	-12.0933
▁malignant	-12.0933
▁subscrib	-12.0933
▁bruno	-12.0933
▁dubious	-12.0933
▁bayonet	-12.0933
▁grammar	-12.0933
▁knave	-12.0933
▁thirtie	-12.0933
▁barrister	-12.0933
▁elliot	-12.0933
▁wherewith	-12.0933
▁audacit	-12.0933
▁pauper	-12.0933
▁carleton	-12.0933
▁proffer	-12.0933
▁epistle	-12.0933
▁rosemary	-12.0933
▁augment	-12.0933
▁presty	-12.0936
▁shahr	-12.0939
▁compris	-12.0958
borg	-12.103
▁columb	-12.1083
▁diligent	-12.1089
▁avalanche	-12.1089
▁bourgeois	-12.1089
▁cornwall	-12.1089
▁dialogue	-12.1089
▁emancipat	-12.1089
▁flavour	-12.1089
▁mordaunt	-12.1089
▁sabbath	-12.1089
▁splinter	-12.1089
▁depict	-12.1089
▁klaus	-12.1089
▁clamour	-12.1089
▁flounder	-12.1089
▁harrow	-12.1089
▁marchioness	-12.1089
▁chamberlain	-12.1089
▁counsellor	-12.1089
▁rhod	-12.1089
▁cowboy	-12.1089
▁recipe	-12.1089
▁lydia	-12.1089
▁unmov	-12.1089
▁gutter	-12.1089
▁prevalen	-12.1089
▁provocati	-12.109
▁harass	-12.109
▁ursu	-12.109
▁domain	-12.109
▁subterrane	-12.109
▁install	-12.1091
▁squint	-12.1091
▁devoi	-12.1091
▁morrel	-12.1109
sought	-12.1203
▁alexandrovna	-12.1248
▁arrogan	-12.1248
▁battalion	-12.1248
▁deception	-12.1248
▁dejected	-12.1248
▁deserving	-12.1248
▁dishonour	-12.1248
▁eunuch	-12.1248
▁grumbling	-12.1248
▁newcomer	-12.1248
▁seclud	-12.1248
▁urban	-12.1248
▁delegate	-12.1248
▁mattress	-12.1248
▁supplement	-12.1248
▁vassal	-12.1248
▁cogni	-12.1248
▁furrow	-12.1248
▁mountjoy	-12.1248
▁smol	-12.1248
▁vivaci	-12.1248
▁devastat	-12.1248
▁libertie	-12.1248
▁chord	-12.1248
▁humbug	-12.1248
▁melbury	-12.1248
▁southwest	-12.1248
▁fumbl	-12.1248
▁complication	-12.1249
▁aloof	-12.1249
▁unarm	-12.1249
▁carving	-12.1249
▁johnnie	-12.125
▁architect	-12.1261
▁abolition	-12.1409
▁accomplice	-12.1409
▁acquisition	-12.1409
▁delirium	-12.1409
▁disfigur	-12.1409
▁edifice	-12.1409
▁exasperate	-12.1409
▁glut	-12.1409
▁hurricane	-12.1409
▁leopold	-12.1409
▁militia	-12.1409
▁obliterat	-12.1409
▁relinquish	-12.1409
▁savour	-12.1409
▁unsuccessful	-12.1409
▁vagabond	-12.1409
▁wharton	-12.1409
▁appeas	-12.1409
▁peddler	-12.1409
▁sanctuar	-12.1409
▁scalp	-12.1409
▁sidney	-12.1409
uccio	-12.1409
▁raffle	-12.1409
▁envoy	-12.1409
▁magpie	-12.1409
▁linley	-12.1409
▁deacon	-12.1409
▁yarn	-12.141
▁shod	-12.141
▁mellow	-12.141
▁tolerate	-12.1434
dependence	-12.1461
▁huddl	-12.1469
▁blasphem	-12.1573
▁cerebral	-12.1573
▁minstrel	-12.1573
▁murphy	-12.1573
▁pavilion	-12.1573
▁rehears	-12.1573
▁sophia	-12.1573
▁submerg	-12.1573
▁submissive	-12.1573
▁torpenhow	-12.1573
▁gesticulat	-12.1573
▁sunbeam	-12.1573
▁whereabout	-12.1573
▁embass	-12.1573
▁reuben	-12.1573
▁choir	-12.1573
▁quarry	-12.1573
▁billiard	-12.1573
▁councillor	-12.1573
▁furtive	-12.1573
▁penrod	-12.1573
▁craving	-12.1574
▁depot	-12.1574
▁grappl	-12.1574
▁orlando	-12.1574
▁buoy	-12.1574
▁blond	-12.1574
▁trudg	-12.1576
▁scrutin	-12.1714
▁infidel	-12.174
▁affront	-12.174
▁anniversar	-12.174
▁arkadyevitch	-12.174
▁bonaparte	-12.174
▁extravagance	-12.174
▁gwendolen	-12.174
▁humphrey	-12.174
▁improbabl	-12.174
▁ivanovna	-12.174
▁ronald	-12.174
▁semyon	-12.174
▁servadac	-12.174
▁shipwreck	-12.174
▁sidewalk	-12.174
▁sluggish	-12.174
▁thoracic	-12.174
▁unquestionabl	-12.174
▁yosemite	-12.174
▁decency	-12.174
▁anoint	-12.174
▁focus	-12.174
▁sawdust	-12.174
▁kennel	-12.174
▁slamm	-12.174
▁plausibl	-12.174
▁mortar	-12.174
▁amateur	-12.174
▁qualification	-12.174
▁crutch	-12.1743
▁preoccup	-12.1829
▁mechanic	-12.1871
▁influen	-12.1896
▁ignomin	-12.1909
▁authentic	-12.1909
▁berengaria	-12.1909
▁commonwealth	-12.1909
▁connexion	-12.1909
▁crosbie	-12.1909
▁efficac	-12.1909
▁lloyd	-12.1909
▁maxwell	-12.1909
▁mistrust	-12.1909
▁mulligan	-12.1909
▁pavlovna	-12.1909
▁programme	-12.1909
▁sphinx	-12.1909
▁superstitious	-12.1909
▁symphon	-12.1909
▁turmoil	-12.1909
▁dublin	-12.1909
▁recount	-12.1909
▁unfair	-12.1909
▁commodit	-12.1909
▁damasc	-12.1909
▁bounderby	-12.1909
▁overhang	-12.191
▁vertical	-12.191
▁debray	-12.191
▁cleav	-12.191
▁perkins	-12.191
▁grabb	-12.1922
▁numb	-12.2036
breast	-12.2037
▁accompaniment	-12.2082
▁apprehensive	-12.2082
▁armchair	-12.2082
▁cavalcanti	-12.2082
▁dialect	-12.2082
▁discomfit	-12.2082
▁glug	-12.2082
▁immeasurabl	-12.2082
▁parasol	-12.2082
▁tribunal	-12.2082
▁unspeakabl	-12.2082
▁bristol	-12.2082
▁languish	-12.2082
▁philanthrop	-12.2082
▁reflex	-12.2082
▁drench	-12.2082
▁saunter	-12.2082
▁trough	-12.2082
▁untouch	-12.2082
▁campbell	-12.2082
▁extort	-12.2082
▁emblem	-12.2082
▁inclos	-12.2082
▁wield	-12.2082
▁patricia	-12.2082
▁golf	-12.2082
▁scald	-12.2082
▁taint	-12.2083
▁treatise	-12.2083
▁historie	-12.2085
kansa	-12.2102
▁genev	-12.2128
▁trinit	-12.218
▁fatigu	-12.2182
graph	-12.2183
powder	-12.2213
▁fyodor	-12.2257
▁animosit	-12.2257
▁chiltern	-12.2257
▁fastidious	-12.2257
▁implacabl	-12.2257
▁incomparabl	-12.2257
▁interchange	-12.2257
▁intrust	-12.2257
▁invincible	-12.2257
▁nathaniel	-12.2257
▁raskolnikov	-12.2257
▁resurrection	-12.2257
▁smelt	-12.2257
▁wilcox	-12.2257
▁captivat	-12.2257
▁flipp	-12.2257
▁jefferson	-12.2257
▁psalm	-12.2257
▁clipp	-12.2257
▁mislead	-12.2257
▁preface	-12.2257
▁transition	-12.2257
▁varnish	-12.2257
▁recreation	-12.2257
▁tremor	-12.2257
▁gopher	-12.2257
▁hovel	-12.2257
▁sierra	-12.2257
▁bridal	-12.2258
weaving	-12.2259
▁dimpl	-12.2263
▁derisi	-12.2275
grown	-12.2391
▁advent	-12.2432
▁borlsover	-12.2436
▁certificate	-12.2436
▁conciliat	-12.2436
▁disconsolate	-12.2436
▁gascoyne	-12.2436
▁imprint	-12.2436
▁innovation	-12.2436
▁nutmeg	-12.2436
▁ordinance	-12.2436
▁perspective	-12.2436
▁profile	-12.2436
▁profusion	-12.2436
▁rampart	-12.2436
▁shrivel	-12.2436
▁standpoint	-12.2436
▁thermometer	-12.2436
▁vicomte	-12.2436
▁charcoal	-12.2436
▁hindrance	-12.2436
▁chieftain	-12.2436
▁freak	-12.2436
▁palliser	-12.2436
▁testify	-12.2436
▁ernest	-12.2436
▁ketch	-12.2436
▁partisan	-12.2436
▁auction	-12.2436
iquette	-12.2436
▁exterminat	-12.2436
▁thame	-12.2438
▁graft	-12.2439
▁eliminat	-12.2449
▁bibl	-12.2553
▁superintend	-12.2616
▁complacent	-12.2618
▁amsterdam	-12.2618
▁buddhis	-12.2618
▁capricious	-12.2618
▁dejection	-12.2618
▁deprav	-12.2618
▁forefather	-12.2618
▁hypocris	-12.2618
▁impertinence	-12.2618
▁labyrinth	-12.2618
▁muskrat	-12.2618
▁ostensibl	-12.2618
▁peremptor	-12.2618
▁refract	-12.2618
▁unconcern	-12.2618
▁vindicat	-12.2618
▁westminster	-12.2618
▁whimsical	-12.2618
▁categor	-12.2618
▁martineau	-12.2618
▁rebuil	-12.2618
▁visual	-12.2618
▁wilmot	-12.2618
▁doorstep	-12.2618
▁effac	-12.2618
▁moraine	-12.2618
▁twain	-12.2618
▁socket	-12.2618
▁hydra	-12.2618
▁wrapping	-12.2618
▁fetter	-12.2618
▁cherrie	-12.2618
▁fragil	-12.2618
▁utopia	-12.2618
▁stubb	-12.262
▁feroci	-12.2623
rbace	-12.2624
throp	-12.2624
▁veritabl	-12.2632
▁venerat	-12.2713
▁unlim	-12.2723
▁economi	-12.2798
▁crescent	-12.2803
▁culprit	-12.2803
▁disastrous	-12.2803
▁geronimo	-12.2803
▁imminent	-12.2803
▁immoral	-12.2803
▁inadequate	-12.2803
▁intricate	-12.2803
▁kennicott	-12.2803
▁municipal	-12.2803
▁opulen	-12.2803
▁paradox	-12.2803
▁pavlovitch	-12.2803
▁prescription	-12.2803
▁presumption	-12.2803
▁prosecutor	-12.2803
▁recompense	-12.2803
▁romayne	-12.2803
▁theodora	-12.2803
▁theoretical	-12.2803
▁chaplain	-12.2803
▁gurgl	-12.2803
▁physiolog	-12.2803
▁veloci	-12.2803
▁pretense	-12.2803
logne	-12.2803
▁fleming	-12.2803
▁gulp	-12.2803
▁rosalie	-12.2803
▁droll	-12.2803
▁redmain	-12.2803
▁shrubber	-12.2803
▁germain	-12.2803
▁feversham	-12.2803
▁tacit	-12.2803
▁inhuman	-12.2803
▁scull	-12.2803
▁ebon	-12.2803
▁egoist	-12.2804
▁pouch	-12.2804
▁actuat	-12.2804
▁dispel	-12.2805
▁rebellio	-12.2967
▁infinit	-12.2976
▁encroach	-12.2992
▁assimilat	-12.2992
▁climax	-12.2992
▁distemper	-12.2992
▁inequalit	-12.2992
▁judicious	-12.2992
▁peninsula	-12.2992
▁provoking	-12.2992
▁relaps	-12.2992
▁seclusion	-12.2992
▁shimerda	-12.2992
▁shopkeeper	-12.2992
▁stupendous	-12.2992
▁suffolk	-12.2992
▁svidrigailov	-12.2992
▁vouchsaf	-12.2992
▁fernand	-12.2992
▁cecily	-12.2992
▁intersect	-12.2992
▁saucepan	-12.2992
▁winterborne	-12.2992
▁promontor	-12.2992
▁contagio	-12.2992
▁lagoon	-12.2992
▁bacch	-12.2992
▁bounty	-12.2992
▁unexp	-12.2992
▁ganem	-12.2992
▁vernon	-12.2992
▁giggl	-12.2993
▁slav	-12.3134
terior	-12.3153
▁coincide	-12.3183
▁bailiff	-12.3184
▁brigitte	-12.3184
▁citoyen	-12.3184
▁competitor	-12.3184
▁disobedien	-12.3184
▁fanciful	-12.3184
▁florida	-12.3184
▁hypocrite	-12.3184
▁identify	-12.3184
▁injunction	-12.3184
▁inseparabl	-12.3184
▁mosquito	-12.3184
▁populous	-12.3184
▁premature	-12.3184
▁unaccustomed	-12.3184
▁vancouver	-12.3184
▁warburton	-12.3184
▁blister	-12.3184
▁geometr	-12.3184
▁festivit	-12.3184
▁intercept	-12.3184
▁pooh	-12.3184
▁refut	-12.3184
▁walnut	-12.3184
▁artisan	-12.3184
▁vestige	-12.3184
▁darnay	-12.3184
▁mattie	-12.3184
▁endanger	-12.3184
▁inherent	-12.3184
digestion	-12.3189
▁mytholog	-12.3255
summer	-12.3335
bank	-12.3336
▁bounc	-12.3357
▁potato	-12.3371
corne	-12.3374
▁custod	-12.338
▁unceasing	-12.338
▁arithmetic	-12.338
▁cleft	-12.338
▁discredit	-12.338
▁drought	-12.338
▁innkeeper	-12.338
▁intermediate	-12.338
▁nikolay	-12.338
▁symmetr	-12.338
▁troph	-12.338
▁dishonor	-12.338
▁shimmer	-12.338
▁sordid	-12.338
▁dessert	-12.338
▁sausage	-12.338
▁scoff	-12.338
▁consort	-12.338
▁lilac	-12.338
▁reptile	-12.338
▁slab	-12.338
▁northwest	-12.338
▁jorda	-12.338
▁carniv	-12.3382
▁lobb	-12.3382
▁tapestr	-12.3382
▁snip	-12.3382
▁agreeabl	-12.3549
▁shrug	-12.3575
▁adjutant	-12.358
▁baltimore	-12.358
▁candlestick	-12.358
▁collision	-12.358
▁consummate	-12.358
▁foreboding	-12.358
▁hammock	-12.358
▁impostor	-12.358
▁juncture	-12.358
▁langmore	-12.358
▁ludicrous	-12.358
▁multiply	-12.358
▁rapturous	-12.358
▁reassuring	-12.358
▁reminiscence	-12.358
▁sculptor	-12.358
▁terrestrial	-12.358
▁unfamiliar	-12.358
▁yvonne	-12.358
▁aggravat	-12.358
▁darrow	-12.358
▁extricat	-12.358
▁patriarch	-12.358
▁enumerat	-12.358
▁uninterest	-12.358
▁knoll	-12.358
▁lunatic	-12.358
▁swoop	-12.358
▁cloister	-12.358
▁cinder	-12.358
▁mutilat	-12.358
▁evolv	-12.358
▁teapot	-12.358
▁cadet	-12.358
▁enhanc	-12.3581
notice	-12.364
▁suprem	-12.3681
▁conceivabl	-12.369
▁insensibl	-12.3716
world	-12.3739
▁descri	-12.3779
▁yank	-12.3783
▁sensual	-12.3784
▁auditor	-12.3784
▁concrete	-12.3784
▁confederation	-12.3784
▁cynthia	-12.3784
▁diffiden	-12.3784
▁distaste	-12.3784
▁footnote	-12.3784
▁geoffr	-12.3784
▁gluck	-12.3784
▁incoherent	-12.3784
▁inconsistent	-12.3784
▁jessica	-12.3784
▁pamela	-12.3784
▁peloponnes	-12.3784
▁philistine	-12.3784
▁phoenician	-12.3784
▁pinnacle	-12.3784
▁preposterous	-12.3784
